#include "magic_wand_model_data.h"


// We need to keep the data array aligned on some architectures.

#ifdef __has_attribute

#define HAVE_ATTRIBUTE(x) __has_attribute(x)

#else

#define HAVE_ATTRIBUTE(x) 0

#endif

#if HAVE_ATTRIBUTE(aligned) || (defined(__GNUC__) && !defined(__clang__))

#define DATA_ALIGN_ATTRIBUTE __attribute__((aligned(4)))

#else

#define DATA_ALIGN_ATTRIBUTE

#endif


const unsigned char g_magic_wand_model_data[] DATA_ALIGN_ATTRIBUTE = {

  0x08, 0x00, 0x00, 0x00, 0x54, 0x46, 0x4c, 0x33, 0x62, 0xff, 0xff, 0xff,
  0x03, 0x00, 0x00, 0x00, 0x10, 0x00, 0x00, 0x00, 0x24, 0x00, 0x00, 0x00,
  0x78, 0x00, 0x00, 0x00, 0x24, 0x00, 0x00, 0x00, 0x05, 0x00, 0x00, 0x00,
  0x78, 0x05, 0x00, 0x00, 0xb0, 0x04, 0x00, 0x00, 0xe0, 0x02, 0x00, 0x00,
  0x60, 0x02, 0x00, 0x00, 0x54, 0x01, 0x00, 0x00, 0x01, 0x00, 0x00, 0x00,
  0x78, 0x00, 0x00, 0x00, 0x13, 0x00, 0x00, 0x00, 0xd4, 0x2f, 0x00, 0x00,
  0xd0, 0x2f, 0x00, 0x00, 0xdc, 0x2e, 0x00, 0x00, 0x68, 0x2e, 0x00, 0x00,
  0xfc, 0x2d, 0x00, 0x00, 0xac, 0x11, 0x00, 0x00, 0x98, 0x10, 0x00, 0x00,
  0xbc, 0x0e, 0x00, 0x00, 0x60, 0x06, 0x00, 0x00, 0xfc, 0x05, 0x00, 0x00,
  0x78, 0x05, 0x00, 0x00, 0xa8, 0x2f, 0x00, 0x00, 0xa4, 0x2f, 0x00, 0x00,
  0xa0, 0x2f, 0x00, 0x00, 0x9c, 0x2f, 0x00, 0x00, 0x98, 0x2f, 0x00, 0x00,
  0x94, 0x2f, 0x00, 0x00, 0x90, 0x2f, 0x00, 0x00, 0x8c, 0x2f, 0x00, 0x00,
  0x0f, 0x00, 0x00, 0x00, 0x4d, 0x4c, 0x49, 0x52, 0x20, 0x43, 0x6f, 0x6e,
  0x76, 0x65, 0x72, 0x74, 0x65, 0x64, 0x2e, 0x00, 0x00, 0x00, 0x0e, 0x00,
  0x18, 0x00, 0x04, 0x00, 0x08, 0x00, 0x0c, 0x00, 0x10, 0x00, 0x14, 0x00,
  0x0e, 0x00, 0x00, 0x00, 0x14, 0x00, 0x00, 0x00, 0x5c, 0x00, 0x00, 0x00,
  0x60, 0x00, 0x00, 0x00, 0x64, 0x00, 0x00, 0x00, 0x84, 0x00, 0x00, 0x00,
  0x12, 0x00, 0x00, 0x00, 0x04, 0x2f, 0x00, 0x00, 0xa0, 0x2e, 0x00, 0x00,
  0xf8, 0x2d, 0x00, 0x00, 0x98, 0x2d, 0x00, 0x00, 0x30, 0x2d, 0x00, 0x00,
  0xdc, 0x10, 0x00, 0x00, 0xc0, 0x0f, 0x00, 0x00, 0xe4, 0x0d, 0x00, 0x00,
  0xa0, 0x05, 0x00, 0x00, 0x3c, 0x05, 0x00, 0x00, 0xb0, 0x04, 0x00, 0x00,
  0xe8, 0x03, 0x00, 0x00, 0x38, 0x03, 0x00, 0x00, 0xa4, 0x02, 0x00, 0x00,
  0x10, 0x02, 0x00, 0x00, 0x90, 0x01, 0x00, 0x00, 0xfc, 0x00, 0x00, 0x00,
  0x80, 0x00, 0x00, 0x00, 0x01, 0x00, 0x00, 0x00, 0x00, 0x00, 0x00, 0x00,
  0x01, 0x00, 0x00, 0x00, 0x11, 0x00, 0x00, 0x00, 0x08, 0x00, 0x00, 0x00,
  0x1c, 0x04, 0x00, 0x00, 0x58, 0x03, 0x00, 0x00, 0xc8, 0x02, 0x00, 0x00,
  0x24, 0x02, 0x00, 0x00, 0xac, 0x01, 0x00, 0x00, 0x10, 0x01, 0x00, 0x00,
  0x94, 0x00, 0x00, 0x00, 0x10, 0x00, 0x00, 0x00, 0x04, 0x00, 0x00, 0x00,
  0x6d, 0x61, 0x69, 0x6e, 0x00, 0x00, 0x00, 0x00, 0x8e, 0xff, 0xff, 0xff,
  0x00, 0x00, 0x00, 0x09, 0x04, 0x00, 0x00, 0x00, 0x1c, 0x00, 0x00, 0x00,
  0x10, 0x00, 0x00, 0x00, 0x04, 0x00, 0x00, 0x00, 0x4e, 0xd2, 0xff, 0xff,
  0x00, 0x00, 0x80, 0x3f, 0x01, 0x00, 0x00, 0x00, 0x11, 0x00, 0x00, 0x00,
  0x01, 0x00, 0x00, 0x00, 0x10, 0x00, 0x00, 0x00, 0xf6, 0xfb, 0xff, 0xff,
  0x00, 0x00, 0x00, 0x19, 0x01, 0x00, 0x00, 0x00, 0xce, 0xd1, 0xff, 0xff,
  0x10, 0x00, 0x00, 0x00, 0x12, 0x00, 0x00, 0x00, 0x14, 0x00, 0x00, 0x00,
  0x20, 0x00, 0x00, 0x00, 0x02, 0x00, 0x00, 0x00, 0x01, 0x00, 0x00, 0x00,
  0x03, 0x00, 0x00, 0x00, 0x08, 0x00, 0x00, 0x00, 0x49, 0x64, 0x65, 0x6e,
  0x74, 0x69, 0x74, 0x79, 0x00, 0x00, 0x00, 0x00, 0x08, 0xd2, 0xff, 0xff,
  0x00, 0x00, 0x0e, 0x00, 0x18, 0x00, 0x08, 0x00, 0x0c, 0x00, 0x10, 0x00,
  0x07, 0x00, 0x14, 0x00, 0x0e, 0x00, 0x00, 0x00, 0x00, 0x00, 0x00, 0x08,
  0x03, 0x00, 0x00, 0x00, 0x18, 0x00, 0x00, 0x00, 0x0c, 0x00, 0x00, 0x00,
  0x04, 0x00, 0x00, 0x00, 0xdc, 0xd1, 0xff, 0xff, 0x01, 0x00, 0x00, 0x00,
  0x10, 0x00, 0x00, 0x00, 0x03, 0x00, 0x00, 0x00, 0x0f, 0x00, 0x00, 0x00,
  0x05, 0x00, 0x00, 0x00, 0x02, 0x00, 0x00, 0x00, 0x46, 0xd2, 0xff, 0xff,
  0x10, 0x00, 0x00, 0x00, 0x11, 0x00, 0x00, 0x00, 0x14, 0x00, 0x00, 0x00,
  0x30, 0x00, 0x00, 0x00, 0x02, 0x00, 0x00, 0x00, 0x01, 0x00, 0x00, 0x00,
  0x03, 0x00, 0x00, 0x00, 0x1a, 0x00, 0x00, 0x00, 0x73, 0x65, 0x71, 0x75,
  0x65, 0x6e, 0x74, 0x69, 0x61, 0x6c, 0x2f, 0x64, 0x65, 0x6e, 0x73, 0x65,
  0x5f, 0x31, 0x2f, 0x42, 0x69, 0x61, 0x73, 0x41, 0x64, 0x64, 0x00, 0x00,
  0x38, 0xd2, 0xff, 0xff, 0xd6, 0xfd, 0xff, 0xff, 0x00, 0x00, 0x00, 0x08,
  0x03, 0x00, 0x00, 0x00, 0x24, 0x00, 0x00, 0x00, 0x18, 0x00, 0x00, 0x00,
  0x0c, 0x00, 0x00, 0x00, 0x00, 0x00, 0x06, 0x00, 0x08, 0x00, 0x07, 0x00,
  0x06, 0x00, 0x00, 0x00, 0x00, 0x00, 0x00, 0x01, 0x01, 0x00, 0x00, 0x00,
  0x0f, 0x00, 0x00, 0x00, 0x03, 0x00, 0x00, 0x00, 0x0e, 0x00, 0x00, 0x00,
  0x04, 0x00, 0x00, 0x00, 0x01, 0x00, 0x00, 0x00, 0xfe, 0xfc, 0xff, 0xff,
  0x00, 0x00, 0x00, 0x09, 0x01, 0x00, 0x00, 0x00, 0xd6, 0xd2, 0xff, 0xff,
  0x10, 0x00, 0x00, 0x00, 0x10, 0x00, 0x00, 0x00, 0x14, 0x00, 0x00, 0x00,
  0x2c, 0x00, 0x00, 0x00, 0x02, 0x00, 0x00, 0x00, 0x01, 0x00, 0x00, 0x00,
  0x10, 0x00, 0x00, 0x00, 0x15, 0x00, 0x00, 0x00, 0x73, 0x65, 0x71, 0x75,
  0x65, 0x6e, 0x74, 0x69, 0x61, 0x6c, 0x2f, 0x64, 0x65, 0x6e, 0x73, 0x65,
  0x2f, 0x52, 0x65, 0x6c, 0x75, 0x00, 0x00, 0x00, 0x1c, 0xd3, 0xff, 0xff,
  0x00, 0x00, 0x0a, 0x00, 0x10, 0x00, 0x04, 0x00, 0x08, 0x00, 0x0c, 0x00,
  0x0a, 0x00, 0x00, 0x00, 0x02, 0x00, 0x00, 0x00, 0x10, 0x00, 0x00, 0x00,
  0x04, 0x00, 0x00, 0x00, 0x01, 0x00, 0x00, 0x00, 0x0e, 0x00, 0x00, 0x00,
  0x02, 0x00, 0x00, 0x00, 0x0d, 0x00, 0x00, 0x00, 0x03, 0x00, 0x00, 0x00,
  0x7a, 0xfd, 0xff, 0xff, 0x00, 0x00, 0x00, 0x16, 0x01, 0x00, 0x00, 0x00,
  0x52, 0xd3, 0xff, 0xff, 0x10, 0x00, 0x00, 0x00, 0x0f, 0x00, 0x00, 0x00,
  0x14, 0x00, 0x00, 0x00, 0x30, 0x00, 0x00, 0x00, 0x02, 0x00, 0x00, 0x00,
  0x01, 0x00, 0x00, 0x00, 0x70, 0x00, 0x00, 0x00, 0x1a, 0x00, 0x00, 0x00,
  0x73, 0x65, 0x71, 0x75, 0x65, 0x6e, 0x74, 0x69, 0x61, 0x6c, 0x2f, 0x66,
  0x6c, 0x61, 0x74, 0x74, 0x65, 0x6e, 0x2f, 0x52, 0x65, 0x73, 0x68, 0x61,
  0x70, 0x65, 0x00, 0x00, 0x44, 0xd3, 0xff, 0xff, 0xe2, 0xfe, 0xff, 0xff,
  0x00, 0x00, 0x00, 0x05, 0x01, 0x00, 0x00, 0x00, 0x38, 0x00, 0x00, 0x00,
  0x2c, 0x00, 0x00, 0x00, 0x14, 0x00, 0x00, 0x00, 0x00, 0x00, 0x0e, 0x00,
  0x14, 0x00, 0x00, 0x00, 0x10, 0x00, 0x0c, 0x00, 0x08, 0x00, 0x04, 0x00,
  0x0e, 0x00, 0x00, 0x00, 0x03, 0x00, 0x00, 0x00, 0x01, 0x00, 0x00, 0x00,
  0x03, 0x00, 0x00, 0x00, 0x01, 0x00, 0x00, 0x00, 0x01, 0x00, 0x00, 0x00,
  0x0d, 0x00, 0x00, 0x00, 0x01, 0x00, 0x00, 0x00, 0x0c, 0x00, 0x00, 0x00,
  0xe2, 0xd3, 0xff, 0xff, 0x10, 0x00, 0x00, 0x00, 0x0e, 0x00, 0x00, 0x00,
  0x1c, 0x00, 0x00, 0x00, 0x40, 0x00, 0x00, 0x00, 0x04, 0x00, 0x00, 0x00,
  0x01, 0x00, 0x00, 0x00, 0x07, 0x00, 0x00, 0x00, 0x01, 0x00, 0x00, 0x00,
  0x10, 0x00, 0x00, 0x00, 0x22, 0x00, 0x00, 0x00, 0x73, 0x65, 0x71, 0x75,
  0x65, 0x6e, 0x74, 0x69, 0x61, 0x6c, 0x2f, 0x6d, 0x61, 0x78, 0x5f, 0x70,
  0x6f, 0x6f, 0x6c, 0x69, 0x6e, 0x67, 0x32, 0x64, 0x5f, 0x31, 0x2f, 0x4d,
  0x61, 0x78, 0x50, 0x6f, 0x6f, 0x6c, 0x00, 0x00, 0xe4, 0xd3, 0xff, 0xff,
  0xc2, 0xfe, 0xff, 0xff, 0x00, 0x00, 0x00, 0x01, 0x24, 0x00, 0x00, 0x00,
  0x18, 0x00, 0x00, 0x00, 0x04, 0x00, 0x00, 0x00, 0xb4, 0xfe, 0xff, 0xff,
  0x01, 0x00, 0x00, 0x00, 0x01, 0x00, 0x00, 0x00, 0x00, 0x00, 0x00, 0x01,
  0x01, 0x00, 0x00, 0x00, 0x0c, 0x00, 0x00, 0x00, 0x03, 0x00, 0x00, 0x00,
  0x0b, 0x00, 0x00, 0x00, 0x07, 0x00, 0x00, 0x00, 0x09, 0x00, 0x00, 0x00,
  0x72, 0xd4, 0xff, 0xff, 0x10, 0x00, 0x00, 0x00, 0x0d, 0x00, 0x00, 0x00,
  0x1c, 0x00, 0x00, 0x00, 0x2c, 0x00, 0x00, 0x00, 0x04, 0x00, 0x00, 0x00,
  0x01, 0x00, 0x00, 0x00, 0x15, 0x00, 0x00, 0x00, 0x01, 0x00, 0x00, 0x00,
  0x10, 0x00, 0x00, 0x00, 0x0c, 0x00, 0x00, 0x00, 0x74, 0x66, 0x6c, 0x2e,
  0x63, 0x6f, 0x6e, 0x76, 0x5f, 0x32, 0x64, 0x31, 0x00, 0x00, 0x00, 0x00,
  0xb8, 0xd4, 0xff, 0xff, 0x00, 0x00, 0x0e, 0x00, 0x1a, 0x00, 0x08, 0x00,
  0x0c, 0x00, 0x10, 0x00, 0x07, 0x00, 0x14, 0x00, 0x0e, 0x00, 0x00, 0x00,
  0x00, 0x00, 0x00, 0x05, 0x01, 0x00, 0x00, 0x00, 0x3c, 0x00, 0x00, 0x00,
  0x30, 0x00, 0x00, 0x00, 0x14, 0x00, 0x00, 0x00, 0x00, 0x00, 0x0e, 0x00,
  0x18, 0x00, 0x17, 0x00, 0x10, 0x00, 0x0c, 0x00, 0x08, 0x00, 0x04, 0x00,
  0x0e, 0x00, 0x00, 0x00, 0x03, 0x00, 0x00, 0x00, 0x03, 0x00, 0x00, 0x00,
  0x03, 0x00, 0x00, 0x00, 0x03, 0x00, 0x00, 0x00, 0x00, 0x00, 0x00, 0x01,
  0x01, 0x00, 0x00, 0x00, 0x0b, 0x00, 0x00, 0x00, 0x01, 0x00, 0x00, 0x00,
  0x0a, 0x00, 0x00, 0x00, 0x46, 0xff, 0xff, 0xff, 0x00, 0x00, 0x00, 0x11,
  0x01, 0x00, 0x00, 0x00, 0x1e, 0xd5, 0xff, 0xff, 0x10, 0x00, 0x00, 0x00,
  0x0c, 0x00, 0x00, 0x00, 0x1c, 0x00, 0x00, 0x00, 0x40, 0x00, 0x00, 0x00,
  0x04, 0x00, 0x00, 0x00, 0x01, 0x00, 0x00, 0x00, 0x15, 0x00, 0x00, 0x00,
  0x01, 0x00, 0x00, 0x00, 0x08, 0x00, 0x00, 0x00, 0x20, 0x00, 0x00, 0x00,
  0x73, 0x65, 0x71, 0x75, 0x65, 0x6e, 0x74, 0x69, 0x61, 0x6c, 0x2f, 0x6d,
  0x61, 0x78, 0x5f, 0x70, 0x6f, 0x6f, 0x6c, 0x69, 0x6e, 0x67, 0x32, 0x64,
  0x2f, 0x4d, 0x61, 0x78, 0x50, 0x6f, 0x6f, 0x6c, 0x00, 0x00, 0x00, 0x00,
  0x78, 0xd5, 0xff, 0xff, 0x00, 0x00, 0x0e, 0x00, 0x14, 0x00, 0x00, 0x00,
  0x08, 0x00, 0x0c, 0x00, 0x07, 0x00, 0x10, 0x00, 0x0e, 0x00, 0x00, 0x00,
  0x00, 0x00, 0x00, 0x01, 0x30, 0x00, 0x00, 0x00, 0x24, 0x00, 0x00, 0x00,
  0x10, 0x00, 0x00, 0x00, 0x0c, 0x00, 0x10, 0x00, 0x00, 0x00, 0x04, 0x00,
  0x08, 0x00, 0x0f, 0x00, 0x0c, 0x00, 0x00, 0x00, 0x01, 0x00, 0x00, 0x00,
  0x01, 0x00, 0x00, 0x00, 0x00, 0x00, 0x00, 0x01, 0x01, 0x00, 0x00, 0x00,
  0x0a, 0x00, 0x00, 0x00, 0x03, 0x00, 0x00, 0x00, 0x00, 0x00, 0x00, 0x00,
  0x06, 0x00, 0x00, 0x00, 0x08, 0x00, 0x00, 0x00, 0x00, 0x00, 0x0a, 0x00,
  0x0c, 0x00, 0x07, 0x00, 0x00, 0x00, 0x08, 0x00, 0x0a, 0x00, 0x00, 0x00,
  0x00, 0x00, 0x00, 0x03, 0x01, 0x00, 0x00, 0x00, 0xe2, 0xd5, 0xff, 0xff,
  0x10, 0x00, 0x00, 0x00, 0x0b, 0x00, 0x00, 0x00, 0x1c, 0x00, 0x00, 0x00,
  0x28, 0x00, 0x00, 0x00, 0x04, 0x00, 0x00, 0x00, 0x01, 0x00, 0x00, 0x00,
  0x40, 0x00, 0x00, 0x00, 0x03, 0x00, 0x00, 0x00, 0x08, 0x00, 0x00, 0x00,
  0x0b, 0x00, 0x00, 0x00, 0x74, 0x66, 0x6c, 0x2e, 0x63, 0x6f, 0x6e, 0x76,
  0x5f, 0x32, 0x64, 0x00, 0xcc, 0xd5, 0xff, 0xff, 0xc2, 0xd6, 0xff, 0xff,
  0x04, 0x00, 0x00, 0x00, 0x40, 0x00, 0x00, 0x00, 0xe2, 0x5e, 0x88, 0xbf,
  0xe3, 0xc4, 0x36, 0x40, 0x19, 0x3f, 0x7f, 0x3f, 0x78, 0x56, 0xcf, 0xbf,
  0x47, 0xfe, 0x0a, 0x3e, 0x42, 0x2d, 0xf5, 0x3f, 0x86, 0xc6, 0x75, 0xbf,
  0xa4, 0xf7, 0xe6, 0x3e, 0x2c, 0x8a, 0xae, 0xbf, 0x9c, 0x9e, 0x7f, 0x40,
  0x35, 0xf6, 0x0c, 0xc0, 0x3e, 0xed, 0x16, 0xc0, 0xd3, 0xc8, 0x6c, 0xbf,
  0x36, 0x68, 0xd4, 0xbf, 0x15, 0xa7, 0xa7, 0xbe, 0xb0, 0x75, 0xf5, 0x3c,
  0x6a, 0xd6, 0xff, 0xff, 0x10, 0x00, 0x00, 0x00, 0x0a, 0x00, 0x00, 0x00,
  0x10, 0x00, 0x00, 0x00, 0x20, 0x00, 0x00, 0x00, 0x01, 0x00, 0x00, 0x00,
  0x10, 0x00, 0x00, 0x00, 0x0d, 0x00, 0x00, 0x00, 0x73, 0x74, 0x64, 0x2e,
  0x63, 0x6f, 0x6e, 0x73, 0x74, 0x61, 0x6e, 0x74, 0x31, 0x00, 0x00, 0x00,
  0x4c, 0xd6, 0xff, 0xff, 0x42, 0xd7, 0xff, 0xff, 0x04, 0x00, 0x00, 0x00,
  0x20, 0x00, 0x00, 0x00, 0x2b, 0x76, 0xce, 0xbc, 0x07, 0xdf, 0x40, 0xc0,
  0xad, 0xf6, 0xba, 0xbf, 0x89, 0x62, 0x2b, 0xbe, 0xbe, 0x09, 0x95, 0xbe,
  0xc7, 0x35, 0xf3, 0xbf, 0x60, 0x34, 0x9d, 0xbf, 0x20, 0x2a, 0xd1, 0xbf,
  0xca, 0xd6, 0xff, 0xff, 0x10, 0x00, 0x00, 0x00, 0x09, 0x00, 0x00, 0x00,
  0x10, 0x00, 0x00, 0x00, 0x20, 0x00, 0x00, 0x00, 0x01, 0x00, 0x00, 0x00,
  0x08, 0x00, 0x00, 0x00, 0x0c, 0x00, 0x00, 0x00, 0x73, 0x74, 0x64, 0x2e,
  0x63, 0x6f, 0x6e, 0x73, 0x74, 0x61, 0x6e, 0x74, 0x00, 0x00, 0x00, 0x00,
  0xac, 0xd6, 0xff, 0xff, 0xa2, 0xd7, 0xff, 0xff, 0x04, 0x00, 0x00, 0x00,
  0x00, 0x08, 0x00, 0x00, 0x50, 0x07, 0x97, 0xbe, 0xf6, 0x09, 0xb8, 0xbd,
  0xdc, 0xf6, 0x40, 0x3e, 0x77, 0x8e, 0x05, 0x3e, 0x7e, 0xfc, 0x0f, 0xbe,
  0x0a, 0x0a, 0x8b, 0xbe, 0x6c, 0x30, 0xfe, 0xbe, 0xf2, 0x94, 0x6b, 0x3d,
  0xe1, 0x0e, 0x40, 0xbe, 0x45, 0x24, 0x08, 0x3e, 0xae, 0x02, 0xbe, 0x3d,
  0x52, 0xbb, 0x98, 0xbd, 0xf7, 0xd5, 0x02, 0xbe, 0x81, 0xba, 0x8f, 0xbe,
  0xce, 0x13, 0x21, 0xbf, 0xbf, 0x77, 0x11, 0xbe, 0xe7, 0x7f, 0x04, 0xbd,
  0x25, 0x12, 0x05, 0x3e, 0x3d, 0xa6, 0x00, 0x3b, 0xd9, 0xad, 0x16, 0xbe,
  0xa1, 0x1c, 0xff, 0x3b, 0xe5, 0xc9, 0x34, 0xbe, 0x5e, 0x6a, 0x5c, 0xbe,
  0x43, 0xa8, 0x6f, 0x3e, 0x8d, 0xc5, 0xa7, 0x3d, 0x1a, 0x65, 0x7a, 0xbd,
  0x01, 0x6a, 0xb0, 0x3e, 0x7e, 0xff, 0x07, 0xbe, 0x90, 0x77, 0x43, 0x3e,
  0x54, 0x10, 0x1e, 0x3d, 0x36, 0xf1, 0x24, 0x3e, 0x72, 0xe4, 0xab, 0x3e,
  0x34, 0x29, 0xb3, 0xbe, 0x8c, 0x19, 0x59, 0x3e, 0x03, 0xef, 0xe6, 0x3d,
  0x63, 0x14, 0x35, 0x3e, 0xbb, 0x99, 0x22, 0xbf, 0xe6, 0x61, 0xd7, 0x3d,
  0x00, 0xd2, 0xb7, 0xbc, 0x1d, 0x14, 0xac, 0x3e, 0x8a, 0xef, 0xf6, 0xbe,
  0x8d, 0x63, 0x8a, 0xbd, 0x58, 0x84, 0x80, 0x3e, 0x43, 0x63, 0x90, 0xbd,
  0xe1, 0xcc, 0xd2, 0xbe, 0xce, 0xdc, 0x9a, 0xbe, 0xc3, 0x19, 0xd1, 0xbd,
  0xd5, 0xe0, 0xe3, 0x3d, 0x15, 0x23, 0x02, 0xbe, 0xfd, 0x13, 0x87, 0xbc,
  0xb4, 0x57, 0x4a, 0x3e, 0x02, 0xc2, 0x14, 0xbe, 0x29, 0xee, 0x65, 0xbe,
  0xc4, 0xc0, 0xf8, 0xbe, 0x78, 0xa0, 0x61, 0xbd, 0x13, 0xb1, 0x87, 0x3e,
  0xaf, 0x37, 0x21, 0xbd, 0xaf, 0x32, 0xde, 0xbd, 0xde, 0x96, 0xd2, 0x3e,
  0x3f, 0x55, 0x4d, 0xbe, 0xc4, 0x24, 0x32, 0x3e, 0x26, 0xf0, 0xf6, 0xbe,
  0x4e, 0x6b, 0xd9, 0xbd, 0x95, 0x18, 0x2e, 0x3d, 0xeb, 0x52, 0x81, 0x3e,
  0x43, 0xb3, 0xf2, 0x3d, 0x57, 0x88, 0x42, 0x3e, 0x76, 0xf8, 0x45, 0x3d,
  0xe3, 0xc8, 0xa8, 0x3d, 0x28, 0x80, 0x7c, 0xbc, 0x46, 0x73, 0x27, 0x3d,
  0xec, 0xa4, 0xa8, 0x3d, 0xc6, 0x55, 0x4b, 0x3e, 0x0d, 0x1b, 0xb8, 0xbd,
  0xa1, 0x82, 0x37, 0xbd, 0x89, 0xb5, 0x27, 0xbe, 0x8f, 0xb3, 0x89, 0xbc,
  0x49, 0x92, 0xfc, 0xbd, 0xa8, 0x27, 0x84, 0x3e, 0x65, 0x91, 0x0a, 0x3e,
  0x58, 0x56, 0x13, 0xbd, 0x05, 0x4c, 0x03, 0x3e, 0x95, 0xb4, 0xa3, 0xbd,
  0x61, 0x10, 0x48, 0x3e, 0x39, 0x7c, 0x16, 0x3c, 0x1c, 0x04, 0x2b, 0xbd,
  0x29, 0x0c, 0x83, 0xbe, 0x3d, 0x40, 0x44, 0x3d, 0x71, 0xb4, 0x0b, 0xbe,
  0x92, 0x70, 0xdb, 0x3c, 0x16, 0xf5, 0xe3, 0x3c, 0x2b, 0x1d, 0x2c, 0x3e,
  0x22, 0xc9, 0x35, 0xbd, 0x78, 0xbf, 0x98, 0xbc, 0xf7, 0x86, 0xe4, 0x3d,
  0xac, 0x1b, 0x80, 0xbd, 0x9d, 0x5c, 0x3d, 0xbc, 0xc7, 0x4b, 0x71, 0x3e,
  0x0e, 0x8e, 0xbe, 0xbd, 0x81, 0xfe, 0xdf, 0xbe, 0x77, 0x75, 0xa1, 0xbc,
  0x5a, 0x60, 0xeb, 0xbe, 0xb6, 0x28, 0x4b, 0xbf, 0x77, 0x9b, 0x18, 0x3e,
  0x22, 0x19, 0xac, 0xbd, 0x9f, 0x52, 0x26, 0x3f, 0x48, 0xf5, 0x27, 0xbe,
  0x87, 0x81, 0x04, 0xbf, 0x93, 0x3e, 0x89, 0xbc, 0xe1, 0x25, 0xf1, 0xbc,
  0xb3, 0x47, 0xa8, 0x3d, 0xd1, 0x30, 0xb2, 0xbc, 0x3c, 0x48, 0x47, 0x3d,
  0xf9, 0x45, 0x68, 0xbf, 0xb1, 0xd8, 0x80, 0x3e, 0x26, 0x67, 0x08, 0xbf,
  0x23, 0x02, 0x22, 0xbb, 0x3d, 0xfd, 0x4b, 0x3d, 0x7e, 0xeb, 0xed, 0x3b,
  0xf1, 0x15, 0xe6, 0xbe, 0x63, 0x49, 0x64, 0xbd, 0xd2, 0x1c, 0xaa, 0xbc,
  0x9a, 0xe4, 0x3e, 0x3d, 0xee, 0xeb, 0xb7, 0x3d, 0xa9, 0x00, 0xc0, 0xbc,
  0x3a, 0x37, 0x4a, 0x3d, 0x11, 0xdc, 0x62, 0x3e, 0x8e, 0x46, 0x29, 0xbe,
  0x5d, 0x7b, 0xe9, 0x3c, 0x4a, 0x2d, 0x98, 0xbe, 0x69, 0x8f, 0x86, 0x3d,
  0x23, 0x40, 0xf3, 0xbd, 0xf7, 0xc0, 0x67, 0xbe, 0x36, 0x2f, 0xcb, 0xbc,
  0xcf, 0x65, 0x03, 0xbf, 0x2c, 0xb0, 0xff, 0x3d, 0xf6, 0xc3, 0x59, 0xbe,
  0x6c, 0xe3, 0xb2, 0xbe, 0x69, 0xa9, 0x55, 0x3d, 0x51, 0xa1, 0x54, 0xbd,
  0x57, 0x73, 0x35, 0xbe, 0x95, 0x0a, 0x96, 0x3e, 0x31, 0xab, 0xcb, 0xbe,
  0xee, 0x4c, 0xb7, 0xbc, 0x9e, 0x20, 0x1c, 0xbe, 0x1e, 0x89, 0x22, 0xbe,
  0x54, 0x19, 0xab, 0xbd, 0xe4, 0x16, 0x90, 0x3b, 0xfd, 0x22, 0x52, 0xbe,
  0x6b, 0x04, 0xde, 0xbd, 0x98, 0x64, 0x40, 0xbe, 0xb5, 0x7f, 0xe7, 0xbd,
  0x6f, 0x08, 0x93, 0x3e, 0x2b, 0xed, 0xf9, 0xbd, 0x76, 0xf6, 0x61, 0x3d,
  0xf7, 0xe0, 0x8d, 0xbb, 0x96, 0xa2, 0xb5, 0xbe, 0x50, 0x06, 0x09, 0x3e,
  0x45, 0xf1, 0xd6, 0xbd, 0x59, 0xaf, 0xff, 0x3d, 0x87, 0x4a, 0xd1, 0xbd,
  0xb3, 0x5c, 0x65, 0xbe, 0xfb, 0x70, 0xf5, 0xbd, 0x16, 0xdd, 0x32, 0xbe,
  0xa9, 0x07, 0xdc, 0x3d, 0x1d, 0x83, 0x34, 0xbe, 0xd7, 0x5d, 0x71, 0x3c,
  0x2f, 0xe5, 0xaf, 0xbe, 0xea, 0x81, 0xa4, 0xbd, 0x32, 0x7a, 0x12, 0xbe,
  0xc5, 0x1f, 0x4b, 0xbe, 0x3d, 0x6c, 0x21, 0xbe, 0xfe, 0xd6, 0x1f, 0x3d,
  0xa6, 0x2d, 0x69, 0xbd, 0xfc, 0xb8, 0x2a, 0x3e, 0xa2, 0x07, 0xbe, 0xbe,
  0xd8, 0xf7, 0xdd, 0xbd, 0xb7, 0x1e, 0xab, 0x3d, 0x27, 0x63, 0x11, 0xbd,
  0x58, 0xae, 0x07, 0xbd, 0x57, 0x03, 0x85, 0xbe, 0x72, 0x05, 0x26, 0x3f,
  0x0e, 0x6f, 0xc2, 0x3c, 0xb0, 0x2f, 0x31, 0x3e, 0x77, 0x33, 0xd2, 0xbd,
  0x5f, 0x6b, 0xfd, 0x3c, 0xdc, 0x07, 0x16, 0x3d, 0x4b, 0x9b, 0xa0, 0xbc,
  0xae, 0xf3, 0xda, 0xbe, 0xf3, 0x53, 0x04, 0xbe, 0x55, 0xe1, 0xaa, 0x3c,
  0x22, 0x5a, 0x4d, 0x3e, 0x91, 0x63, 0xa2, 0xbe, 0x04, 0x13, 0xb9, 0xbe,
  0xa5, 0xf2, 0x0b, 0xbf, 0xaa, 0xc1, 0xc6, 0xbd, 0x55, 0x84, 0xc6, 0xbd,
  0x58, 0xb0, 0x4d, 0xbe, 0xb4, 0x66, 0x11, 0xbe, 0x20, 0x4f, 0xf1, 0xbe,
  0xed, 0xc3, 0xfa, 0x3d, 0x33, 0x7d, 0x33, 0xbe, 0xa2, 0xbf, 0xac, 0xbd,
  0xdc, 0xfa, 0x15, 0x3e, 0xdb, 0x44, 0x22, 0xbe, 0x45, 0xc2, 0xce, 0xbd,
  0xa1, 0x7c, 0xf8, 0x3c, 0x2a, 0x4e, 0x94, 0xbe, 0xb6, 0x07, 0x2b, 0xbe,
  0xe0, 0xd0, 0x18, 0x3e, 0x2c, 0x26, 0x8b, 0x3b, 0x8e, 0x2f, 0x26, 0xbc,
  0x94, 0x00, 0xe8, 0xbe, 0xfc, 0x71, 0xe9, 0x3d, 0x47, 0x6c, 0x96, 0x3d,
  0xe9, 0x5e, 0x81, 0x3e, 0x5a, 0xab, 0x9c, 0xbe, 0x82, 0x98, 0x4b, 0xbc,
  0x9c, 0x31, 0x23, 0x3e, 0x34, 0x4b, 0xd5, 0x3d, 0xc2, 0xe1, 0xc8, 0xbe,
  0x7b, 0x61, 0xff, 0x3b, 0xdb, 0x48, 0xd2, 0xbd, 0x5b, 0xb6, 0x73, 0x3e,
  0x90, 0xa7, 0x5b, 0xbc, 0x86, 0x32, 0xbb, 0xbd, 0xb9, 0xf3, 0xa9, 0xbe,
  0x63, 0x8e, 0x91, 0xbe, 0xcb, 0x82, 0xc6, 0xbe, 0x83, 0x68, 0x18, 0xbe,
  0xd0, 0xcb, 0x03, 0xbf, 0x99, 0xbd, 0x11, 0xbd, 0x05, 0xc6, 0xca, 0xbd,
  0x87, 0x26, 0x2e, 0xbd, 0x5c, 0x69, 0xc2, 0x3e, 0x42, 0xc3, 0xee, 0x3d,
  0x95, 0xf9, 0x12, 0x3e, 0xc1, 0x54, 0x53, 0x3c, 0x8f, 0xfa, 0x6b, 0xbe,
  0x28, 0x17, 0x1b, 0xbd, 0x78, 0xda, 0xaf, 0xbe, 0x14, 0xb2, 0xf5, 0xbd,
  0x3e, 0x45, 0x9f, 0xbe, 0xe2, 0xd3, 0x18, 0x3d, 0x80, 0x2c, 0x8c, 0xbe,
  0xc4, 0x0d, 0x5d, 0xbd, 0x46, 0x80, 0x16, 0xbe, 0xa8, 0x72, 0x90, 0xbe,
  0x6e, 0xf8, 0x1e, 0xbe, 0xde, 0xe7, 0x2e, 0x3e, 0x4e, 0xbd, 0xc1, 0xbd,
  0x38, 0x49, 0xd8, 0xbc, 0x07, 0x7c, 0x56, 0xbe, 0x9d, 0x70, 0xc1, 0xbc,
  0x3f, 0xf3, 0x1e, 0x3e, 0x49, 0x94, 0xf1, 0xbd, 0x50, 0xda, 0x8b, 0xbd,
  0x0f, 0x94, 0x26, 0x3f, 0x64, 0x5e, 0xac, 0xbc, 0x53, 0xa7, 0x8f, 0x3c,
  0x09, 0x68, 0x36, 0xbd, 0xcd, 0x26, 0x76, 0xbe, 0x8b, 0xaa, 0x1b, 0xbf,
  0x3d, 0x05, 0x5a, 0x3d, 0x8e, 0x98, 0xbc, 0xbc, 0x21, 0xca, 0x8c, 0xbd,
  0x54, 0x91, 0xa0, 0x3c, 0x98, 0xbb, 0x68, 0xbd, 0xaa, 0x37, 0x47, 0x3b,
  0xb0, 0xa5, 0xfc, 0xbc, 0x2f, 0x27, 0x14, 0x3e, 0xe7, 0x09, 0x54, 0x3e,
  0xe3, 0x6e, 0x2e, 0xbd, 0x8e, 0x45, 0x1d, 0xbe, 0xb2, 0xa8, 0x25, 0x3d,
  0xa0, 0x82, 0x6e, 0xbd, 0x63, 0x4e, 0xc0, 0xbb, 0x81, 0xe5, 0x94, 0x3e,
  0x36, 0x9a, 0x85, 0xbd, 0x43, 0x0f, 0xa0, 0xbe, 0x26, 0x09, 0x9a, 0xbd,
  0x59, 0x64, 0x09, 0xbe, 0x09, 0x56, 0xae, 0xbe, 0xf7, 0x4e, 0x31, 0xbc,
  0x3d, 0x44, 0x84, 0xbd, 0xe6, 0xc6, 0x9c, 0xbd, 0xca, 0xdf, 0xe7, 0xbe,
  0x4e, 0x8d, 0x3e, 0xbe, 0x2a, 0x37, 0x21, 0xbe, 0xdf, 0xfc, 0x9b, 0xbe,
  0x2e, 0xc2, 0xcb, 0xbd, 0xfc, 0x71, 0xcc, 0xbd, 0x3e, 0x1c, 0x62, 0xbe,
  0x1d, 0xa9, 0xc3, 0xbd, 0x6e, 0xe3, 0xca, 0x3d, 0x77, 0xd8, 0x07, 0xbf,
  0xf0, 0xd2, 0x74, 0xbc, 0x8c, 0x9f, 0xd1, 0xbc, 0x8b, 0x3c, 0xab, 0xbd,
  0xf0, 0x38, 0x73, 0xbd, 0xa6, 0xa8, 0x57, 0xbe, 0x28, 0x17, 0xbd, 0x3e,
  0x6b, 0x7b, 0xcf, 0xbd, 0xe5, 0x8d, 0x0d, 0x3e, 0xee, 0x2b, 0x44, 0xbe,
  0xe2, 0x3f, 0xcb, 0xbd, 0x39, 0xae, 0xba, 0xbe, 0xd6, 0xb8, 0xd0, 0xbd,
  0x47, 0xa4, 0x18, 0xbe, 0x40, 0xcd, 0xc8, 0xbd, 0xb8, 0x69, 0x2f, 0xbe,
  0xd4, 0xf8, 0xd5, 0xbe, 0x97, 0x2c, 0x15, 0xbe, 0xb7, 0xfa, 0x70, 0xbc,
  0xc6, 0x83, 0x1b, 0xbe, 0x6b, 0x8a, 0xb6, 0xbd, 0x5e, 0xfd, 0xa7, 0xbe,
  0xb9, 0xe9, 0xe0, 0xbd, 0xa7, 0x6c, 0x90, 0x3d, 0xca, 0x4c, 0x1b, 0x3e,
  0x8d, 0x3f, 0x89, 0xbe, 0x0f, 0x11, 0x4d, 0x3e, 0x4c, 0xa6, 0x49, 0xbe,
  0xcb, 0xef, 0x73, 0xbd, 0xf2, 0xa1, 0xbb, 0xbe, 0x1a, 0x9f, 0x97, 0x3e,
  0xf5, 0x89, 0xee, 0x3d, 0xfd, 0x78, 0x3a, 0x3e, 0x7f, 0xde, 0x5a, 0xbe,
  0x4a, 0x9e, 0x35, 0x3e, 0xa3, 0x52, 0x56, 0x3e, 0x48, 0xa2, 0x9c, 0x3d,
  0xe9, 0x39, 0xe8, 0xbe, 0x19, 0x2c, 0x31, 0xbe, 0xd9, 0x55, 0x4e, 0x3c,
  0xd8, 0x4d, 0x38, 0x3e, 0xe6, 0xa3, 0x6e, 0xbe, 0x43, 0xfe, 0x9f, 0xbd,
  0x44, 0xa7, 0xe8, 0x3e, 0x7a, 0xef, 0x46, 0xbb, 0xfd, 0xf2, 0x11, 0xbe,
  0x17, 0x79, 0x60, 0xbe, 0x08, 0xe9, 0x49, 0xbe, 0x54, 0x66, 0x3b, 0x3e,
  0x84, 0x4a, 0x2d, 0xbe, 0x4f, 0x39, 0xcd, 0xbd, 0xf0, 0xf4, 0xa7, 0x3d,
  0x54, 0x9f, 0xde, 0xbd, 0xd0, 0x74, 0x8c, 0xbb, 0x2d, 0x1d, 0xa4, 0xbe,
  0x84, 0xa2, 0x95, 0xbe, 0x4b, 0x58, 0x34, 0x3e, 0xe2, 0x30, 0xd7, 0xbd,
  0x51, 0x24, 0x8d, 0xbe, 0x92, 0x79, 0xb8, 0x3d, 0xbb, 0x8c, 0x76, 0xbe,
  0x14, 0x50, 0xb9, 0xbd, 0x69, 0xee, 0xa5, 0xbe, 0xf6, 0xcf, 0x19, 0xbf,
  0x46, 0x8d, 0xc7, 0x3e, 0xa4, 0xfc, 0x84, 0xbd, 0xde, 0x20, 0xd4, 0x3e,
  0x46, 0xa1, 0x88, 0xbd, 0x68, 0x98, 0x0d, 0xbf, 0x8e, 0x8d, 0xcd, 0xbc,
  0x65, 0x03, 0x30, 0x3d, 0xe6, 0xdd, 0xb9, 0x3e, 0x0a, 0xcd, 0x98, 0x3c,
  0xa0, 0xae, 0xaa, 0x3a, 0xd5, 0x82, 0xd8, 0xbe, 0x4b, 0x15, 0xde, 0x3d,
  0x54, 0xaa, 0xa0, 0xbe, 0x64, 0x30, 0x86, 0xbc, 0xc4, 0xed, 0x2c, 0x3e,
  0x2e, 0xf3, 0x09, 0x3e, 0xcf, 0x77, 0xa4, 0xbe, 0x36, 0x99, 0x53, 0xbd,
  0x07, 0x50, 0xcd, 0xbe, 0x61, 0x8d, 0x53, 0x3c, 0xd3, 0x17, 0xe4, 0xbc,
  0xab, 0x14, 0xd6, 0xbc, 0x15, 0x42, 0x33, 0x3d, 0x27, 0x3d, 0x03, 0x3e,
  0xa8, 0xcf, 0x94, 0xbe, 0x66, 0x3b, 0xb2, 0x3d, 0x1e, 0x64, 0xc3, 0xbd,
  0xfe, 0x40, 0xef, 0xbd, 0x34, 0x20, 0x38, 0xbf, 0xbf, 0x20, 0xb0, 0x3d,
  0x60, 0x5c, 0x81, 0xbe, 0x50, 0x04, 0x72, 0xbe, 0x66, 0xa9, 0xe5, 0x3d,
  0x75, 0x9b, 0x0f, 0xbe, 0x65, 0x36, 0x57, 0xbd, 0xff, 0x8a, 0xe9, 0xbd,
  0x08, 0x25, 0xb1, 0xbe, 0x62, 0xa7, 0xeb, 0x3c, 0x72, 0xba, 0x48, 0xbe,
  0xd8, 0x95, 0x9b, 0x3e, 0xca, 0x45, 0x8c, 0xbd, 0x9e, 0xea, 0x88, 0xbe,
  0x58, 0x50, 0x1c, 0x3e, 0x61, 0x5a, 0x4a, 0x3d, 0x4a, 0xdd, 0xf7, 0xbc,
  0xb5, 0xd7, 0x05, 0xbe, 0xe8, 0x2a, 0x9c, 0xbe, 0xe4, 0x3b, 0x4f, 0xbe,
  0xf4, 0xdb, 0x7e, 0xbe, 0xb5, 0x44, 0x6f, 0x3d, 0x90, 0xf9, 0xff, 0xbd,
  0x89, 0x9b, 0xe8, 0x3b, 0x56, 0x30, 0xdf, 0xbd, 0xb4, 0xfe, 0x70, 0x3e,
  0x4c, 0x8d, 0xac, 0xbe, 0x30, 0xef, 0xd0, 0xbe, 0x01, 0xec, 0xa5, 0x3c,
  0xf4, 0xdd, 0xb3, 0x3d, 0x2a, 0x76, 0xa6, 0xbd, 0xed, 0x4d, 0xf6, 0x3d,
  0x81, 0xf4, 0x15, 0xbf, 0x7a, 0xc6, 0x88, 0xbb, 0xcd, 0xc8, 0xaa, 0x3d,
  0x42, 0x64, 0x90, 0x3e, 0x63, 0xf5, 0xa7, 0x3e, 0x01, 0xed, 0x23, 0x3d,
  0x34, 0x69, 0xde, 0xbe, 0x51, 0x89, 0x3b, 0x3e, 0xe0, 0xc3, 0x89, 0xbe,
  0x92, 0xa0, 0x6f, 0x3c, 0xa0, 0x1f, 0x00, 0xbd, 0x59, 0x84, 0x5a, 0x3e,
  0xa0, 0x64, 0xcf, 0xbe, 0x9c, 0xb3, 0x0d, 0xbe, 0xb0, 0x94, 0x22, 0x3d,
  0xbb, 0xd2, 0x79, 0xbd, 0x14, 0xd5, 0xd5, 0x3c, 0xf9, 0xb2, 0x07, 0xbd,
  0xa1, 0x53, 0xa5, 0xbd, 0x72, 0x9d, 0x5e, 0x3e, 0xfe, 0xef, 0xc5, 0xbd,
  0xa0, 0x43, 0xb3, 0xbe, 0xd4, 0x01, 0x4b, 0x3d, 0x82, 0x12, 0x2a, 0xbe,
  0x31, 0x4b, 0x10, 0xbd, 0x62, 0x04, 0x83, 0xbe, 0x34, 0x6b, 0xd6, 0xbe,
  0x34, 0xaf, 0x95, 0xbf, 0x68, 0x9b, 0x90, 0x3c, 0xaf, 0x96, 0x7d, 0xbd,
  0x16, 0x2f, 0x20, 0xbd, 0x3a, 0x8e, 0x31, 0x3d, 0x04, 0x85, 0x21, 0xbe,
  0x8f, 0x47, 0xdf, 0xbc, 0x01, 0xd3, 0x9a, 0xbd, 0x71, 0x9e, 0xbf, 0x3e,
  0x54, 0xfe, 0x81, 0x3d, 0x76, 0x14, 0x90, 0x3b, 0x41, 0xcf, 0xcd, 0x3e,
  0x2a, 0x34, 0x2f, 0x3c, 0x9d, 0xa1, 0x03, 0xbe, 0x73, 0x1b, 0x76, 0xbb,
  0x25, 0x0a, 0x96, 0xbd, 0x77, 0xa3, 0xb7, 0x3d, 0x2d, 0x9a, 0xa6, 0x3c,
  0xc4, 0xde, 0xfa, 0xbb, 0x3f, 0x44, 0xec, 0xbd, 0x0a, 0x31, 0xa9, 0x3c,
  0xc9, 0xa9, 0x50, 0xbd, 0x75, 0x6a, 0x90, 0xbd, 0xbe, 0x57, 0x21, 0x3e,
  0xcf, 0x34, 0x13, 0xbd, 0x25, 0xcd, 0x4b, 0x3d, 0xe5, 0x6f, 0x4a, 0xbc,
  0x1b, 0x53, 0xc0, 0x3d, 0x67, 0x2a, 0x85, 0xbc, 0xe1, 0x96, 0xe5, 0xbb,
  0x4a, 0x80, 0x93, 0xbd, 0x6f, 0x86, 0x44, 0xbe, 0xe2, 0x6b, 0xa3, 0x3e,
  0x6d, 0xbd, 0xe4, 0x3d, 0x27, 0x16, 0x1f, 0xbd, 0x13, 0x57, 0x29, 0xbe,
  0x7d, 0x1e, 0xd0, 0xbc, 0xfb, 0xc0, 0xf3, 0xbd, 0x83, 0xc5, 0x2a, 0xbc,
  0x7f, 0x77, 0x0b, 0xbe, 0xe8, 0x80, 0x97, 0x3d, 0xf8, 0x09, 0xfa, 0x3d,
  0x24, 0x6f, 0x34, 0xbd, 0xff, 0x46, 0x58, 0x3d, 0x0b, 0xa9, 0x08, 0x3d,
  0x6c, 0xd2, 0x5c, 0xbd, 0x2f, 0x0b, 0xc8, 0xbc, 0xb3, 0x19, 0x68, 0x3e,
  0x04, 0x41, 0x1a, 0xbe, 0x17, 0x86, 0x27, 0xbe, 0x61, 0xc2, 0x2d, 0xbe,
  0x17, 0x5f, 0x6d, 0x3e, 0xa8, 0x2d, 0x19, 0xbe, 0x02, 0xb7, 0x90, 0x3d,
  0x6f, 0xf1, 0xc2, 0xbd, 0x17, 0x13, 0x7e, 0x3e, 0x02, 0xfc, 0x72, 0x3d,
  0xcc, 0x49, 0x6c, 0x3e, 0x95, 0xd1, 0x06, 0x3c, 0x8d, 0xbc, 0x51, 0xbe,
  0xb1, 0x83, 0x25, 0x3c, 0x4d, 0x16, 0xd9, 0x3d, 0x97, 0xcf, 0xec, 0xbd,
  0x9a, 0x99, 0x39, 0x3d, 0x39, 0x3b, 0x22, 0xbd, 0xe1, 0x73, 0xce, 0xbd,
  0x0a, 0xdf, 0xff, 0xff, 0x10, 0x00, 0x00, 0x00, 0x08, 0x00, 0x00, 0x00,
  0x1c, 0x00, 0x00, 0x00, 0x38, 0x00, 0x00, 0x00, 0x04, 0x00, 0x00, 0x00,
  0x10, 0x00, 0x00, 0x00, 0x04, 0x00, 0x00, 0x00, 0x01, 0x00, 0x00, 0x00,
  0x08, 0x00, 0x00, 0x00, 0x1a, 0x00, 0x00, 0x00, 0x73, 0x65, 0x71, 0x75,
  0x65, 0x6e, 0x74, 0x69, 0x61, 0x6c, 0x2f, 0x63, 0x6f, 0x6e, 0x76, 0x32,
  0x64, 0x5f, 0x31, 0x2f, 0x43, 0x6f, 0x6e, 0x76, 0x32, 0x44, 0x00, 0x00,
  0x04, 0xdf, 0xff, 0xff, 0xfa, 0xdf, 0xff, 0xff, 0x04, 0x00, 0x00, 0x00,
  0x80, 0x01, 0x00, 0x00, 0x68, 0x09, 0x14, 0x3f, 0xcb, 0x48, 0x15, 0x3d,
  0x4c, 0xbb, 0x1e, 0x3d, 0x6d, 0x42, 0x2b, 0xbe, 0x0f, 0xb1, 0x9e, 0x3d,
  0x50, 0x4c, 0x65, 0xbc, 0x8a, 0xfe, 0x04, 0x3e, 0x95, 0xbe, 0x2b, 0xbe,
  0x86, 0x33, 0x3e, 0xbe, 0xcc, 0xc1, 0x33, 0xbe, 0x30, 0xf5, 0x4f, 0x3e,
  0xe4, 0xac, 0xfd, 0x3d, 0xaf, 0xcc, 0x36, 0xbe, 0xcd, 0x49, 0xa7, 0x3b,
  0x62, 0x3f, 0x8a, 0xbd, 0xbd, 0xd2, 0xbf, 0xbe, 0xe5, 0x93, 0xbd, 0xbe,
  0x58, 0x34, 0xda, 0x3c, 0x07, 0x7a, 0x92, 0x3e, 0xcd, 0x1a, 0x60, 0x3e,
  0x62, 0x5b, 0x45, 0xbd, 0x66, 0x0f, 0x4f, 0x3e, 0x50, 0x7f, 0x84, 0x3e,
  0xab, 0x5a, 0xf7, 0xbb, 0x06, 0xe2, 0x83, 0xbe, 0x60, 0xaf, 0x77, 0x3e,
  0xf7, 0xe3, 0xc5, 0x3d, 0xc8, 0xea, 0x54, 0xbe, 0xe8, 0x75, 0xc7, 0xbb,
  0xa2, 0x5d, 0xcb, 0x3d, 0x21, 0x98, 0x1a, 0x3e, 0x2a, 0xf3, 0x7c, 0xbd,
  0x96, 0x2b, 0xd9, 0x3c, 0xfa, 0x78, 0xba, 0x3e, 0xdc, 0x89, 0x24, 0xbd,
  0xeb, 0x1b, 0x25, 0xbe, 0x56, 0x77, 0x00, 0xbe, 0x2a, 0x2a, 0xa1, 0xbe,
  0x27, 0xd2, 0x45, 0x3e, 0x2c, 0xd2, 0xd9, 0xbc, 0xc5, 0xf3, 0xc0, 0xbb,
  0x41, 0x38, 0xeb, 0x3d, 0xcf, 0x81, 0x16, 0xbe, 0x03, 0x12, 0x5c, 0x3e,
  0xeb, 0x4f, 0x8d, 0xbe, 0x4b, 0x11, 0xa5, 0x3d, 0xa6, 0xa8, 0x31, 0xbe,
  0xc7, 0xb8, 0x33, 0x3e, 0x98, 0xfb, 0xcc, 0xbd, 0xd6, 0x01, 0xe5, 0x3d,
  0x59, 0xac, 0xd7, 0x3d, 0x8a, 0xbf, 0x5b, 0x3e, 0x37, 0x1d, 0x07, 0xbe,
  0xe3, 0xcc, 0xb8, 0x3e, 0x48, 0xbf, 0x69, 0x3e, 0xd4, 0x82, 0xe4, 0xbd,
  0x18, 0xc4, 0x95, 0xbe, 0x5d, 0xfb, 0x26, 0x3e, 0xef, 0x95, 0x13, 0x3e,
  0x80, 0xa6, 0xae, 0xbd, 0xb0, 0x2c, 0xe2, 0x3e, 0x31, 0xf4, 0x94, 0x3d,
  0x2d, 0x51, 0x9c, 0xbd, 0x00, 0x44, 0x33, 0x3e, 0x72, 0xa2, 0x8d, 0xbd,
  0x85, 0xb8, 0x1a, 0x3d, 0x1e, 0x0f, 0x8c, 0xbe, 0xd6, 0x66, 0x4f, 0x3c,
  0x51, 0xa8, 0xdf, 0x3c, 0xf5, 0xac, 0xba, 0xbe, 0x93, 0x0b, 0x0f, 0xbe,
  0xcf, 0xd5, 0x5f, 0x3e, 0x05, 0x28, 0x44, 0x3d, 0x33, 0x06, 0x44, 0xbc,
  0x61, 0x1a, 0x04, 0x3d, 0x92, 0x98, 0x45, 0x3e, 0x28, 0x79, 0xfa, 0x3e,
  0x79, 0x87, 0x32, 0x3e, 0xf2, 0xb5, 0xf4, 0xbc, 0xed, 0xcc, 0x5b, 0xbe,
  0x77, 0xf8, 0x35, 0x3e, 0x5a, 0xb0, 0x2c, 0xbe, 0x8d, 0x7b, 0x6d, 0xbe,
  0x12, 0x8f, 0xab, 0xbe, 0x76, 0x3a, 0xc8, 0xbe, 0x3a, 0xba, 0x04, 0xbe,
  0x9d, 0x9d, 0x85, 0x3d, 0x0b, 0x79, 0x10, 0xbe, 0x8c, 0x21, 0x40, 0x3d,
  0x62, 0xc4, 0x73, 0x3c, 0x28, 0xec, 0xb9, 0x3e, 0xf3, 0xe2, 0xf3, 0x3d,
  0x71, 0x7a, 0x6c, 0xbb, 0x68, 0x3a, 0x5a, 0x3e, 0x49, 0x22, 0x87, 0x3c,
  0xb4, 0x65, 0xd8, 0xbc, 0xe2, 0xe0, 0xff, 0xff, 0x10, 0x00, 0x00, 0x00,
  0x07, 0x00, 0x00, 0x00, 0x1c, 0x00, 0x00, 0x00, 0x38, 0x00, 0x00, 0x00,
  0x04, 0x00, 0x00, 0x00, 0x08, 0x00, 0x00, 0x00, 0x04, 0x00, 0x00, 0x00,
  0x03, 0x00, 0x00, 0x00, 0x01, 0x00, 0x00, 0x00, 0x18, 0x00, 0x00, 0x00,
  0x73, 0x65, 0x71, 0x75, 0x65, 0x6e, 0x74, 0x69, 0x61, 0x6c, 0x2f, 0x63,
  0x6f, 0x6e, 0x76, 0x32, 0x64, 0x2f, 0x43, 0x6f, 0x6e, 0x76, 0x32, 0x44,
  0x00, 0x00, 0x00, 0x00, 0xdc, 0xe0, 0xff, 0xff, 0xd2, 0xe1, 0xff, 0xff,
  0x04, 0x00, 0x00, 0x00, 0xc0, 0x00, 0x00, 0x00, 0xff, 0x55, 0x68, 0xbd,
  0xba, 0x78, 0xd1, 0xbd, 0x8a, 0x90, 0x9a, 0x3e, 0x15, 0x9b, 0xd6, 0x3e,
  0xf6, 0xda, 0x0d, 0x3e, 0x84, 0x2d, 0x8b, 0xba, 0x22, 0xe1, 0x61, 0x3e,
  0x5c, 0xb3, 0x97, 0x3e, 0x32, 0xc5, 0x16, 0xbe, 0x62, 0xb6, 0xce, 0x3d,
  0xc0, 0x74, 0x7e, 0x3c, 0x42, 0xaa, 0x5f, 0xbe, 0x05, 0x8c, 0x9b, 0xbe,
  0xcc, 0x18, 0x9f, 0xbe, 0xfe, 0xd3, 0x34, 0xbe, 0xba, 0x1f, 0x1a, 0x3e,
  0x74, 0x08, 0x0b, 0xbd, 0x87, 0x85, 0x0d, 0xbe, 0xf2, 0xe6, 0x87, 0x3e,
  0x32, 0x80, 0x70, 0xbe, 0x25, 0x56, 0x60, 0x3e, 0x36, 0x06, 0x3c, 0xbe,
  0xb5, 0x4e, 0x33, 0x3e, 0x0a, 0x2c, 0x8e, 0xbe, 0x27, 0xc8, 0x3c, 0xbe,
  0xc3, 0x39, 0x36, 0x3e, 0xa0, 0x43, 0x45, 0x3e, 0x1b, 0x48, 0x49, 0xbe,
  0x29, 0x15, 0x27, 0xbe, 0x7d, 0x1a, 0x78, 0xbe, 0x34, 0x04, 0x4a, 0xbd,
  0xfc, 0x2e, 0x3f, 0x3e, 0x0d, 0x9a, 0x27, 0xbe, 0x51, 0x56, 0x81, 0xbd,
  0x6d, 0x80, 0x7a, 0x3e, 0x89, 0xa8, 0xbe, 0xbe, 0x6d, 0x05, 0x2a, 0x3e,
  0xb8, 0xa8, 0x81, 0x3e, 0xfa, 0xae, 0x2d, 0x3e, 0x5a, 0x4f, 0xcc, 0x3e,
  0x83, 0x99, 0x44, 0xbe, 0x9a, 0xd5, 0xb7, 0x3d, 0xcf, 0x38, 0x61, 0x3e,
  0xca, 0x8f, 0x2c, 0xbe, 0xaa, 0xba, 0x4c, 0xbe, 0x3e, 0xa4, 0xb7, 0xbe,
  0x1d, 0x95, 0x05, 0xbe, 0x28, 0x26, 0x69, 0x3e, 0xfa, 0xe1, 0xff, 0xff,
  0x10, 0x00, 0x00, 0x00, 0x06, 0x00, 0x00, 0x00, 0x14, 0x00, 0x00, 0x00,
  0x30, 0x00, 0x00, 0x00, 0x02, 0x00, 0x00, 0x00, 0x03, 0x00, 0x00, 0x00,
  0x10, 0x00, 0x00, 0x00, 0x19, 0x00, 0x00, 0x00, 0x73, 0x65, 0x71, 0x75,
  0x65, 0x6e, 0x74, 0x69, 0x61, 0x6c, 0x2f, 0x64, 0x65, 0x6e, 0x73, 0x65,
  0x5f, 0x31, 0x2f, 0x4d, 0x61, 0x74, 0x4d, 0x75, 0x6c, 0x00, 0x00, 0x00,
  0xec, 0xe1, 0xff, 0xff, 0xe2, 0xe2, 0xff, 0xff, 0x04, 0x00, 0x00, 0x00,
  0x00, 0x1c, 0x00, 0x00, 0x36, 0xf9, 0xf6, 0x3d, 0x4f, 0xe6, 0x41, 0x3d,
  0x59, 0x46, 0x44, 0xbc, 0xd3, 0x4b, 0x24, 0x3e, 0x23, 0x72, 0x99, 0xbd,
  0xf6, 0x2f, 0xb9, 0x3d, 0xef, 0xc6, 0xc9, 0xbb, 0xbc, 0xa1, 0x36, 0xbe,
  0x63, 0x48, 0x64, 0x3e, 0xb3, 0xa0, 0x33, 0xbe, 0xc9, 0x30, 0xdf, 0x3d,
  0x00, 0x9a, 0x36, 0x3c, 0x16, 0x56, 0xb2, 0xbe, 0xf8, 0x23, 0x1d, 0x3e,
  0xf2, 0xb1, 0xb6, 0x3d, 0xd0, 0x11, 0xfe, 0x3d, 0xb8, 0x21, 0xe4, 0x3d,
  0x3b, 0x7f, 0xbe, 0x3c, 0x6b, 0x4a, 0xbe, 0xbc, 0x2b, 0xf9, 0x0f, 0x3e,
  0x2b, 0xfc, 0x77, 0xbd, 0xcf, 0xd6, 0x01, 0x3e, 0xb5, 0xbc, 0x22, 0xbc,
  0x7a, 0xc6, 0x7b, 0x3d, 0xb4, 0x12, 0xda, 0x3d, 0x9f, 0xb0, 0x1a, 0x40,
  0x4c, 0x09, 0x0d, 0x3d, 0x48, 0x89, 0xcd, 0x3a, 0xc7, 0x09, 0x9a, 0xbd,
  0x39, 0x34, 0xd0, 0x3e, 0x06, 0x19, 0x11, 0xbe, 0x40, 0x7d, 0x34, 0xbd,
  0x6a, 0x77, 0xba, 0x3d, 0xda, 0x00, 0xa3, 0x3d, 0xbd, 0xf6, 0x73, 0xbc,
  0x16, 0x55, 0x90, 0xbe, 0xe9, 0x1e, 0x46, 0xbd, 0xdf, 0x2f, 0x5e, 0x3d,
  0x25, 0x48, 0x16, 0x3e, 0x1b, 0x9c, 0xe4, 0x3b, 0xa1, 0x20, 0x8d, 0x3d,
  0x7a, 0x45, 0xea, 0x3f, 0xe3, 0xf8, 0x5a, 0x3d, 0xd9, 0x35, 0x7d, 0xbc,
  0x02, 0x0a, 0xc3, 0xbd, 0xc0, 0x07, 0xf7, 0x3c, 0x21, 0xf4, 0x3c, 0xbe,
  0xc4, 0xe2, 0x97, 0xbd, 0x24, 0x6a, 0xa6, 0xbd, 0xac, 0x5d, 0x21, 0x3e,
  0x25, 0xaf, 0x5b, 0xbd, 0x04, 0x5e, 0x9b, 0xbe, 0x0b, 0xd9, 0xb4, 0xba,
  0xd3, 0x63, 0x3a, 0xbc, 0x33, 0xe9, 0xdb, 0xbd, 0xbb, 0x57, 0x1d, 0x3d,
  0xd3, 0xdd, 0x95, 0xbe, 0x39, 0xb0, 0x7a, 0x3f, 0xb8, 0x0d, 0x29, 0xbd,
  0x43, 0xa7, 0xda, 0xbd, 0x1b, 0xc6, 0xab, 0xbd, 0x5b, 0x94, 0x7c, 0xbe,
  0x41, 0xdd, 0x92, 0xbe, 0xe3, 0xd9, 0xa3, 0xbd, 0x78, 0x82, 0x9e, 0xbc,
  0x34, 0x36, 0xde, 0x3d, 0xe5, 0x1c, 0x26, 0xbd, 0x58, 0xc2, 0x0a, 0x3e,
  0xe5, 0x0f, 0xf2, 0x3b, 0x53, 0x9e, 0x33, 0x3d, 0xd3, 0xa0, 0x3d, 0x3e,
  0x33, 0x16, 0xd5, 0x3c, 0x29, 0x89, 0x86, 0xbd, 0x35, 0x41, 0xba, 0x3f,
  0xd1, 0x3d, 0xa6, 0xbd, 0xb4, 0x2a, 0x8b, 0x3d, 0x96, 0x31, 0x4a, 0xbe,
  0xdd, 0xf9, 0xb1, 0x3c, 0x5b, 0xf7, 0x21, 0xbe, 0x60, 0x5a, 0x3d, 0x3b,
  0x98, 0xb3, 0x3e, 0x3e, 0xcb, 0xa7, 0x19, 0x3d, 0xa7, 0x8b, 0xf7, 0xbc,
  0x55, 0x21, 0x3f, 0x3e, 0xf8, 0x02, 0x0c, 0x3d, 0x75, 0xcb, 0xaf, 0x3a,
  0x9e, 0xe6, 0x94, 0x3d, 0x9f, 0x76, 0xcc, 0x3d, 0x15, 0x79, 0x4a, 0xbb,
  0x4c, 0x01, 0x5d, 0x3f, 0x4f, 0xd2, 0xf5, 0x3a, 0x79, 0xd5, 0xb7, 0x3d,
  0x1b, 0x1f, 0xcc, 0xbe, 0x87, 0xca, 0xc4, 0x3e, 0x21, 0x0b, 0x1a, 0x3c,
  0xe5, 0x0c, 0x10, 0x3d, 0xb1, 0x15, 0x06, 0xbd, 0x96, 0x03, 0x81, 0x3d,
  0x40, 0x96, 0x3e, 0xbc, 0xf8, 0x87, 0x8c, 0x3d, 0x06, 0x96, 0xbb, 0xbd,
  0x60, 0x21, 0xe9, 0x3d, 0x8a, 0x4d, 0x47, 0xbd, 0xe7, 0x2f, 0x3f, 0xbd,
  0x2e, 0x68, 0xa5, 0x3b, 0x85, 0xb2, 0x0d, 0x3d, 0xef, 0x92, 0xf8, 0xbb,
  0x5e, 0xa1, 0x8f, 0xbc, 0x50, 0x28, 0x0c, 0xbd, 0xf0, 0xce, 0xa0, 0xbc,
  0x4b, 0xf9, 0xb5, 0xbc, 0x8c, 0xc6, 0x72, 0xbd, 0x04, 0x71, 0x9a, 0xbd,
  0x46, 0x4f, 0x04, 0x3e, 0x63, 0x69, 0xcf, 0xbe, 0xa7, 0x29, 0x45, 0x3d,
  0x9a, 0x5f, 0xbd, 0x3e, 0xe3, 0xd9, 0xf8, 0xbd, 0x4f, 0xe5, 0xa2, 0x3e,
  0xf0, 0xa9, 0x93, 0x3e, 0x92, 0xdb, 0x06, 0xbc, 0xee, 0x25, 0x9b, 0x3e,
  0x02, 0x36, 0x86, 0x3d, 0x34, 0xdd, 0x02, 0xbe, 0x88, 0x64, 0x2d, 0xbb,
  0x7b, 0x86, 0x53, 0x3e, 0x4f, 0xed, 0x6e, 0xbe, 0x45, 0xb7, 0xac, 0xbc,
  0x62, 0xa1, 0x71, 0xbe, 0x9b, 0x21, 0x37, 0xbd, 0x02, 0x11, 0x1c, 0xbe,
  0x5a, 0xc2, 0x37, 0x3e, 0x45, 0xf8, 0x8b, 0x3e, 0x31, 0xa4, 0x77, 0x3d,
  0x8b, 0x95, 0x24, 0x3e, 0x1a, 0xe6, 0x02, 0x3e, 0x0e, 0x1d, 0x22, 0xbe,
  0x11, 0x6a, 0x62, 0xbe, 0xf3, 0x44, 0xe0, 0x3d, 0x87, 0xba, 0x70, 0xbe,
  0x9e, 0x98, 0xa7, 0x3d, 0xe1, 0xd6, 0x1a, 0xbc, 0x1b, 0xd3, 0x2d, 0x3e,
  0xb0, 0x95, 0xb4, 0xbd, 0x37, 0xcf, 0x9c, 0x3e, 0x8c, 0x6e, 0x63, 0x3d,
  0x81, 0x5f, 0xbe, 0xbc, 0x16, 0x76, 0x26, 0x3e, 0x95, 0xc5, 0x05, 0x3e,
  0x0a, 0xa0, 0xc9, 0x3d, 0xac, 0xe0, 0x03, 0x3e, 0xce, 0x52, 0x32, 0x3e,
  0x6d, 0x2b, 0xac, 0x38, 0x49, 0xb5, 0x0a, 0xbe, 0x4b, 0xf5, 0xba, 0x3e,
  0x9c, 0xe8, 0x6a, 0xbe, 0x89, 0xd1, 0x0b, 0x3c, 0x07, 0x00, 0x52, 0x3e,
  0x8a, 0xe3, 0xe3, 0xbb, 0x8c, 0x41, 0x08, 0x3d, 0xdb, 0x67, 0x5c, 0x3e,
  0xdd, 0x53, 0x84, 0xbc, 0x16, 0x71, 0x98, 0xbe, 0xaf, 0x5f, 0x56, 0x3e,
  0x10, 0xb4, 0x88, 0x3e, 0x30, 0x18, 0xcf, 0x3d, 0x76, 0x2e, 0x76, 0xbd,
  0x6c, 0xc8, 0xba, 0x3e, 0xa1, 0x5b, 0xce, 0x3e, 0x38, 0xab, 0x81, 0xbd,
  0x5b, 0xd4, 0xc2, 0xbd, 0x0f, 0x57, 0x12, 0x3d, 0xa0, 0xe4, 0x9a, 0x3c,
  0x7b, 0xb4, 0x78, 0x3e, 0xd5, 0x5d, 0x7f, 0x3d, 0xdc, 0x91, 0x18, 0xbd,
  0x3a, 0x24, 0x0a, 0xbe, 0x97, 0x6d, 0x7a, 0x3d, 0xfc, 0xbe, 0x49, 0xbe,
  0xc4, 0x75, 0x9a, 0x3e, 0xfa, 0x51, 0x69, 0x3e, 0x6d, 0xfe, 0x61, 0x3e,
  0x3d, 0x65, 0x2f, 0x3e, 0x95, 0x3a, 0x8e, 0x3e, 0x79, 0x53, 0x82, 0x3e,
  0xce, 0x67, 0x88, 0xbd, 0x44, 0x2d, 0xae, 0x3d, 0x6a, 0x25, 0x35, 0x3e,
  0xc5, 0x17, 0x26, 0x3e, 0x71, 0xff, 0xe6, 0x3d, 0x89, 0xac, 0x0a, 0xbe,
  0xcc, 0x50, 0xd1, 0xbd, 0xe0, 0xdd, 0x43, 0x3d, 0x59, 0x7a, 0xf0, 0xbd,
  0x1e, 0x88, 0x30, 0xbe, 0x50, 0xfd, 0x86, 0xbd, 0x6a, 0x21, 0x0e, 0x3f,
  0xd6, 0xae, 0x6d, 0xbe, 0xbc, 0x31, 0x21, 0x3e, 0x9e, 0x3f, 0xba, 0x3e,
  0xb1, 0xdc, 0xa7, 0x3d, 0xde, 0x44, 0xf5, 0xbd, 0x03, 0xd0, 0xe0, 0xbd,
  0xee, 0x6b, 0x33, 0x3d, 0x4e, 0xae, 0x4d, 0x3e, 0xbc, 0x2f, 0x9d, 0x3d,
  0x34, 0x4d, 0xd3, 0x3c, 0x33, 0x84, 0xa4, 0x3d, 0xe0, 0x79, 0x71, 0xbd,
  0x56, 0x5e, 0x3f, 0xbc, 0xc2, 0x1d, 0x82, 0xbe, 0x8c, 0x70, 0xcb, 0x3e,
  0x18, 0xa1, 0x59, 0x3e, 0xea, 0xef, 0x31, 0xbe, 0xc9, 0x31, 0x02, 0x3e,
  0x43, 0xec, 0x39, 0x3e, 0xd9, 0xde, 0x9e, 0xbd, 0x62, 0x09, 0x36, 0xbd,
  0xd6, 0x82, 0x56, 0xbe, 0x0a, 0x9c, 0xcd, 0x3c, 0xce, 0x51, 0xd5, 0xbd,
  0x74, 0xd1, 0xad, 0xbd, 0xd8, 0xc1, 0x98, 0x3d, 0x22, 0x85, 0x12, 0xbe,
  0x2e, 0x69, 0x1d, 0x3e, 0x17, 0x1d, 0xe8, 0x3e, 0x55, 0xe8, 0x8a, 0xbd,
  0x0f, 0x7f, 0xfe, 0xbe, 0xb4, 0x50, 0xed, 0xbd, 0x2a, 0x6b, 0x0f, 0x3e,
  0x5a, 0x22, 0xd3, 0x3d, 0xd5, 0x83, 0x38, 0xbe, 0xee, 0x4b, 0x19, 0x3d,
  0xa8, 0x8e, 0x64, 0xbe, 0xfb, 0x27, 0x82, 0x3d, 0x8b, 0x88, 0x40, 0xbe,
  0x9b, 0xa3, 0x00, 0xbe, 0x07, 0x1a, 0x50, 0xbe, 0x64, 0x9c, 0x83, 0x3d,
  0xe3, 0x84, 0x1a, 0x3d, 0x12, 0x72, 0x5e, 0x3e, 0xe4, 0x36, 0x55, 0x3e,
  0x34, 0x47, 0x0f, 0xbd, 0x5c, 0xe5, 0x3a, 0xbe, 0x5d, 0x04, 0xb9, 0xbe,
  0x56, 0x84, 0xae, 0xbe, 0x07, 0x70, 0xed, 0xbd, 0xd1, 0x96, 0xc5, 0x3b,
  0x27, 0xb7, 0x74, 0xbe, 0x0b, 0xcc, 0x29, 0x40, 0xe0, 0xf8, 0x2f, 0x3e,
  0x41, 0x57, 0x99, 0x3e, 0xba, 0x28, 0xb5, 0xbe, 0x0a, 0xbc, 0xee, 0xbe,
  0xd8, 0x35, 0x3e, 0xbe, 0x24, 0xc0, 0x95, 0xbe, 0x1a, 0x35, 0x82, 0x3e,
  0x8e, 0xe0, 0xa5, 0x3e, 0x00, 0x40, 0x76, 0xbd, 0x6a, 0x29, 0x0f, 0xbe,
  0x86, 0x44, 0xf0, 0xbd, 0x62, 0x24, 0xfa, 0x3e, 0xfc, 0xf7, 0xe6, 0xbe,
  0x50, 0xb3, 0xd6, 0xbc, 0xf0, 0xe8, 0xee, 0xbd, 0xbf, 0x45, 0x34, 0x40,
  0xd8, 0xe3, 0x21, 0xbe, 0x2d, 0x45, 0x6d, 0x3e, 0x6f, 0x97, 0xa5, 0xbe,
  0x92, 0xb2, 0xc3, 0x3e, 0x96, 0xda, 0x3a, 0xbd, 0x23, 0x91, 0x07, 0xbe,
  0xb3, 0x90, 0xff, 0xbd, 0x19, 0xce, 0x1e, 0xbe, 0x86, 0x4c, 0x68, 0xbc,
  0x14, 0x15, 0x9f, 0x3d, 0xde, 0x95, 0x59, 0x3e, 0x3c, 0x29, 0x9e, 0x3e,
  0x61, 0x67, 0xc2, 0xbd, 0x7d, 0x7e, 0xe2, 0x3c, 0x16, 0x15, 0xb3, 0xbc,
  0x93, 0xb4, 0xbe, 0x3f, 0x51, 0x31, 0x24, 0x3b, 0x53, 0xff, 0x80, 0x3e,
  0x37, 0x22, 0x52, 0xbe, 0xb8, 0x8d, 0x29, 0x3d, 0x87, 0x2e, 0x56, 0xbd,
  0xf0, 0x87, 0xc1, 0x3d, 0xd6, 0x6c, 0xbe, 0xbc, 0x39, 0xb5, 0xb8, 0x3e,
  0x81, 0x71, 0x8b, 0xbc, 0x82, 0xd1, 0x8f, 0xbe, 0x25, 0x05, 0x0d, 0xbd,
  0x46, 0xdc, 0xd2, 0x3e, 0xe2, 0x1e, 0x02, 0xbd, 0x25, 0xdc, 0x28, 0x3e,
  0x2a, 0x25, 0x67, 0x3d, 0x39, 0xf9, 0x77, 0x3f, 0x5a, 0x1b, 0x80, 0x3d,
  0xfe, 0x30, 0x31, 0xbe, 0x65, 0x0b, 0xa7, 0xbd, 0x18, 0x7d, 0x33, 0x3d,
  0xe6, 0x7d, 0x33, 0xbe, 0x56, 0x45, 0x93, 0xbc, 0x6f, 0x78, 0x65, 0x3c,
  0x29, 0xa6, 0xa6, 0x3e, 0x15, 0x2f, 0x47, 0xbd, 0xb1, 0x9f, 0xf0, 0xbe,
  0x61, 0x76, 0x86, 0x3e, 0x4a, 0x2e, 0x89, 0x3e, 0x1d, 0x2e, 0xb1, 0x3e,
  0x9c, 0xa9, 0xc1, 0xbc, 0xdd, 0x83, 0x69, 0xbe, 0xf0, 0x86, 0xce, 0x3f,
  0x7d, 0xe7, 0x9c, 0x3e, 0x3f, 0xb8, 0x64, 0xbe, 0xaf, 0xa5, 0xd6, 0xbd,
  0x97, 0x2a, 0x5c, 0xbe, 0xe6, 0xd0, 0x98, 0xbd, 0xac, 0xb6, 0xb6, 0xbb,
  0x16, 0xda, 0x92, 0xbd, 0x36, 0x0b, 0xd3, 0x3d, 0x4c, 0xf6, 0x16, 0xbd,
  0x23, 0x82, 0x4e, 0x3d, 0xa4, 0x15, 0x3f, 0xbd, 0x80, 0x9f, 0x8f, 0x3e,
  0xa4, 0x75, 0x14, 0x3e, 0x00, 0xfa, 0x37, 0xbe, 0x13, 0x55, 0x1d, 0x3e,
  0x90, 0x90, 0x8b, 0x3e, 0xb0, 0x57, 0x94, 0x3b, 0x00, 0xae, 0xa0, 0xbc,
  0xc0, 0x5e, 0x0b, 0x3e, 0x9e, 0xfb, 0x83, 0xbe, 0xdb, 0xcb, 0x77, 0xbd,
  0xb6, 0x2c, 0x01, 0x3c, 0x5e, 0xab, 0x08, 0x3e, 0xe4, 0xf0, 0x8c, 0x3b,
  0x8b, 0x73, 0xc9, 0xbd, 0xc3, 0x61, 0x28, 0x3b, 0xbc, 0x9a, 0x80, 0xbc,
  0xfb, 0x97, 0x2a, 0xbe, 0x4a, 0xff, 0x39, 0x3e, 0xfd, 0x1a, 0x39, 0x3e,
  0xb8, 0x96, 0x3c, 0x3d, 0xd1, 0xcd, 0x88, 0x3e, 0x97, 0x10, 0x2e, 0xbe,
  0x5b, 0x61, 0x01, 0xbd, 0x44, 0x85, 0x48, 0xbd, 0xf2, 0xf8, 0xac, 0xbd,
  0x24, 0xe5, 0xa1, 0x3d, 0xa6, 0x98, 0x42, 0x3d, 0x46, 0xbe, 0xcb, 0x3b,
  0x15, 0x42, 0xc7, 0x3d, 0x8e, 0xdb, 0x8f, 0xbd, 0xe1, 0x4d, 0x9a, 0xbd,
  0xe4, 0xd6, 0xf5, 0x3c, 0x28, 0x23, 0x5d, 0x3e, 0x5c, 0x50, 0x80, 0xbe,
  0x29, 0x95, 0x7e, 0x3e, 0x8d, 0x81, 0xfa, 0x3c, 0x60, 0x2e, 0x83, 0x3e,
  0x1b, 0x75, 0x51, 0x3b, 0x4a, 0xee, 0x09, 0x3e, 0x54, 0x94, 0x59, 0x3c,
  0x3b, 0xfd, 0x67, 0xbe, 0x3d, 0x6f, 0x8e, 0xbe, 0x0f, 0x6c, 0x80, 0xbe,
  0x49, 0x42, 0x38, 0xbe, 0x6b, 0x83, 0x04, 0x3d, 0xe6, 0x75, 0xf8, 0xbd,
  0xab, 0x3f, 0x1a, 0x3e, 0xb7, 0xbb, 0x1d, 0x3e, 0x12, 0x65, 0x4f, 0x3e,
  0xdf, 0xbf, 0xf0, 0xbc, 0x8f, 0xad, 0x88, 0x3e, 0xeb, 0x60, 0xd0, 0x3d,
  0xfe, 0x12, 0xbf, 0x3e, 0x9b, 0x70, 0x66, 0xbe, 0xd7, 0x3f, 0x70, 0xbe,
  0x5c, 0xdc, 0x91, 0xbd, 0x01, 0x98, 0xe3, 0x3d, 0x75, 0x6d, 0x8d, 0xbe,
  0xc8, 0x97, 0x53, 0xbe, 0xc1, 0x5b, 0x65, 0x3e, 0xaa, 0x52, 0x90, 0x3e,
  0x84, 0x25, 0xa0, 0xbe, 0xed, 0x02, 0xfe, 0xbd, 0x4a, 0x15, 0x8d, 0x3e,
  0xd0, 0xc5, 0xaf, 0x3d, 0x1d, 0xe5, 0x23, 0xbe, 0x4a, 0xf5, 0x88, 0x3e,
  0xed, 0x9a, 0x4c, 0xbe, 0xa9, 0x95, 0x90, 0x3e, 0xd8, 0x67, 0x40, 0x3e,
  0xda, 0xf1, 0x9a, 0x3d, 0x00, 0xfb, 0x32, 0xbe, 0x64, 0x40, 0x62, 0x3d,
  0xbc, 0x7a, 0xa0, 0xbd, 0x4a, 0xab, 0x8a, 0xbe, 0x30, 0xcd, 0x4e, 0x3d,
  0x7d, 0x4f, 0xb8, 0x3e, 0x7e, 0x1a, 0x0b, 0xbd, 0xc3, 0xe6, 0x35, 0xbd,
  0x85, 0xcb, 0xac, 0x3d, 0x02, 0x34, 0x03, 0x3e, 0xd4, 0xad, 0xe6, 0xbd,
  0x5a, 0xd1, 0xaf, 0x3c, 0x2d, 0xa2, 0xdb, 0x3d, 0xcd, 0x94, 0x96, 0x3e,
  0xb8, 0x21, 0x2f, 0xbe, 0x7e, 0xf0, 0x37, 0xbe, 0xd0, 0xab, 0xe2, 0x3d,
  0x55, 0x8f, 0x69, 0xbe, 0x8e, 0xf9, 0x11, 0xbe, 0xc3, 0xa7, 0xaa, 0xbe,
  0xa6, 0xbe, 0xb5, 0xbd, 0xc3, 0xb3, 0xf3, 0x3d, 0xc2, 0xf4, 0x7c, 0xbe,
  0xa6, 0xe0, 0x67, 0xbd, 0xea, 0x55, 0x0f, 0xbe, 0xc7, 0x2c, 0xfc, 0x3d,
  0x7e, 0xd0, 0x92, 0xbe, 0xb2, 0x6e, 0x08, 0x3e, 0x5f, 0xf3, 0x81, 0x3c,
  0x43, 0xc8, 0xa7, 0x3e, 0x4b, 0x3c, 0x0a, 0xbe, 0x3a, 0x01, 0x19, 0xbe,
  0xd8, 0x3d, 0xcb, 0x3c, 0x7d, 0x4c, 0x47, 0x3d, 0x06, 0xe1, 0x3a, 0xbe,
  0xb8, 0x32, 0x2c, 0xbe, 0xf7, 0x83, 0x74, 0xbe, 0xae, 0x91, 0x86, 0x3e,
  0x6d, 0xf1, 0x27, 0xbe, 0xcc, 0x6e, 0x5a, 0xbe, 0x20, 0x22, 0x25, 0x3c,
  0x58, 0x43, 0x99, 0x3e, 0x97, 0xfb, 0xb0, 0xbe, 0xc4, 0x8b, 0x82, 0x3d,
  0xd9, 0x34, 0x88, 0xbe, 0x10, 0x74, 0x4c, 0x3d, 0x1d, 0x21, 0xe1, 0xbd,
  0x85, 0x00, 0x7e, 0xbe, 0xb5, 0xdf, 0x06, 0x3c, 0x70, 0xcb, 0x22, 0xbe,
  0xb7, 0x64, 0x60, 0xbd, 0x9e, 0xf6, 0x5d, 0xbe, 0x40, 0x8f, 0xc5, 0xbc,
  0x5e, 0xfa, 0x9c, 0xbd, 0xaf, 0xa2, 0x15, 0xbe, 0x82, 0x7d, 0xa3, 0x3d,
  0xd4, 0x93, 0x82, 0xbe, 0x14, 0xb7, 0xbc, 0xbe, 0x4d, 0xf3, 0xd9, 0xbe,
  0x54, 0xae, 0x65, 0xbd, 0xf0, 0xc2, 0x85, 0xbc, 0x11, 0xfa, 0x45, 0xbe,
  0x73, 0xc1, 0x08, 0xbd, 0x25, 0x97, 0x38, 0xbe, 0xdc, 0x83, 0x90, 0x3e,
  0x32, 0x78, 0x36, 0xbe, 0xc2, 0x39, 0xab, 0xbd, 0x05, 0x76, 0x21, 0xbf,
  0xe0, 0xbb, 0x31, 0xbd, 0xae, 0x0f, 0x1d, 0x3d, 0xe4, 0xf0, 0xf2, 0xbd,
  0xf5, 0x37, 0x5f, 0xbe, 0xdb, 0x81, 0x9b, 0xbd, 0xf0, 0x6c, 0x6c, 0x3d,
  0x2d, 0x47, 0xb2, 0xbd, 0x5e, 0xd7, 0x9c, 0xbd, 0x79, 0xf8, 0x90, 0x3d,
  0x87, 0x2d, 0xcf, 0xbd, 0x2e, 0x3c, 0x28, 0x3e, 0x5b, 0xf9, 0x19, 0xbe,
  0xc2, 0x9b, 0x6f, 0x3e, 0x6e, 0x1c, 0x40, 0x3e, 0x6d, 0x10, 0xaa, 0xbd,
  0x0c, 0x85, 0x0f, 0xbf, 0x0d, 0x25, 0xa3, 0x3d, 0xab, 0x4c, 0x69, 0xbe,
  0x58, 0x22, 0x47, 0xbe, 0x0e, 0x92, 0x97, 0x3d, 0x09, 0xd2, 0xc5, 0xbd,
  0xd2, 0x48, 0x39, 0x3d, 0x36, 0x97, 0x8c, 0xbe, 0x14, 0x8e, 0x37, 0xbe,
  0x8b, 0x42, 0x4a, 0xbe, 0xcf, 0xfc, 0x9b, 0xbb, 0x8e, 0x8b, 0x0e, 0xbe,
  0x9c, 0x71, 0x37, 0xbe, 0x00, 0x92, 0x5e, 0x3e, 0x66, 0x2d, 0xc1, 0x3d,
  0x91, 0x2f, 0x4e, 0xbe, 0xe7, 0xc0, 0x8f, 0xbe, 0x60, 0x3b, 0xe6, 0xbb,
  0xde, 0x11, 0x2f, 0xbd, 0x3c, 0x21, 0x7e, 0xbe, 0x2b, 0xab, 0x1f, 0xbe,
  0x66, 0x1d, 0x2a, 0xbe, 0x8f, 0xf9, 0x08, 0xbe, 0x23, 0x3c, 0x58, 0xbe,
  0x65, 0x4f, 0x24, 0x3d, 0x9e, 0x37, 0x70, 0x3c, 0x3a, 0x09, 0x44, 0x3e,
  0x75, 0xbc, 0x0c, 0xbe, 0xa7, 0x9f, 0x98, 0xbc, 0xc4, 0x70, 0x80, 0xbc,
  0x5d, 0xfa, 0x58, 0xbd, 0xd1, 0x3c, 0x84, 0xbe, 0xa1, 0x9e, 0xd3, 0xbe,
  0x56, 0x8c, 0x74, 0x3e, 0x47, 0x07, 0xff, 0xbd, 0x57, 0x40, 0x38, 0xbe,
  0xf5, 0xc7, 0x95, 0x3e, 0xec, 0x86, 0xc4, 0xbd, 0x95, 0xeb, 0x0a, 0x3e,
  0xb2, 0xcb, 0x1d, 0xbe, 0xcf, 0xe6, 0x5f, 0xbe, 0xb9, 0x8e, 0x1e, 0x3e,
  0xf4, 0x4b, 0x7b, 0x3d, 0x74, 0x07, 0x15, 0xbd, 0x3f, 0x5a, 0x3b, 0x3e,
  0x46, 0xc3, 0xd8, 0x3b, 0xe8, 0x01, 0x87, 0xbd, 0x2c, 0x0f, 0x08, 0xbe,
  0x4f, 0xbc, 0xba, 0xbe, 0x67, 0x3b, 0x3e, 0x3e, 0x81, 0xf6, 0x40, 0xbe,
  0x62, 0x9c, 0x9f, 0x3d, 0x2b, 0x84, 0xce, 0x3e, 0x06, 0x39, 0x84, 0xbd,
  0x16, 0xbb, 0x02, 0x3d, 0x00, 0xa3, 0x95, 0xbe, 0x24, 0x96, 0x86, 0x3d,
  0x1f, 0x02, 0x8a, 0x3e, 0x8e, 0x7b, 0x88, 0x3d, 0x6a, 0x8e, 0x55, 0xbe,
  0x37, 0xb0, 0x76, 0x3e, 0x78, 0xfd, 0xfd, 0xba, 0x87, 0xa9, 0x0e, 0x3e,
  0xdf, 0xd3, 0xf1, 0x3d, 0xbe, 0x1a, 0xf0, 0xbc, 0xa7, 0x75, 0xe7, 0x3d,
  0x35, 0xb2, 0x2d, 0xbd, 0x3a, 0x3d, 0x0d, 0x3b, 0xad, 0x5b, 0x35, 0x3d,
  0xef, 0x78, 0x6c, 0x3e, 0xab, 0xce, 0xdd, 0x3d, 0x19, 0x5c, 0x0d, 0xbc,
  0xa2, 0x15, 0x4f, 0x3e, 0x29, 0xa1, 0xd9, 0x3d, 0xbf, 0x81, 0x03, 0xbc,
  0x46, 0x52, 0xe7, 0x3c, 0xe3, 0x7a, 0xa0, 0x3c, 0x2a, 0x42, 0x19, 0xbe,
  0x8f, 0xf5, 0xa5, 0x3d, 0x3b, 0x4d, 0xb7, 0x3c, 0xa2, 0x45, 0xf1, 0x3d,
  0x8b, 0xa0, 0xfb, 0x3d, 0xf4, 0xe6, 0x71, 0xbe, 0xd7, 0xc4, 0x24, 0xbd,
  0xfa, 0xab, 0x0a, 0xbe, 0x1f, 0x50, 0x87, 0x3d, 0x6c, 0x3d, 0x81, 0xbd,
  0x74, 0x53, 0x82, 0xbd, 0xa8, 0xe2, 0xae, 0xbd, 0x8c, 0x8a, 0xd5, 0xbd,
  0x55, 0xa8, 0x9f, 0xbd, 0x46, 0x75, 0x6b, 0xbe, 0x64, 0x3f, 0xc0, 0xbd,
  0x2c, 0xd0, 0x44, 0xbe, 0x6e, 0x3f, 0x61, 0xbc, 0xbf, 0x57, 0x49, 0xbd,
  0x4e, 0x14, 0x2c, 0x3d, 0xd2, 0x46, 0x75, 0xbc, 0x1b, 0xcc, 0x93, 0x3d,
  0x64, 0x01, 0xa9, 0xbe, 0x58, 0xc9, 0x23, 0xbd, 0x1c, 0x0f, 0xad, 0xbd,
  0x15, 0x25, 0x4e, 0xbe, 0xf3, 0x89, 0x68, 0xbb, 0x91, 0xcb, 0x42, 0xbe,
  0xa9, 0xbe, 0x23, 0xbe, 0x29, 0x7d, 0xf6, 0xbd, 0xf7, 0x0e, 0x1f, 0xbe,
  0xc5, 0x75, 0x15, 0xbd, 0xbe, 0xaf, 0x51, 0xbe, 0x0e, 0xa8, 0x2b, 0x3e,
  0xa7, 0x46, 0x42, 0xbe, 0xca, 0x05, 0x7e, 0xbe, 0x6e, 0xf3, 0xe8, 0xbd,
  0xd4, 0xeb, 0xcc, 0xbc, 0x58, 0x62, 0x03, 0xbe, 0x4d, 0xea, 0x7d, 0x3c,
  0x8c, 0xf4, 0x9e, 0x3c, 0xba, 0x7f, 0x73, 0xbd, 0x3f, 0xa9, 0x8e, 0xbe,
  0xb2, 0x2a, 0x27, 0xbd, 0x34, 0xb2, 0x8a, 0xbe, 0x9e, 0xfe, 0x33, 0xbe,
  0xf6, 0x0c, 0x00, 0xbd, 0x3b, 0x9a, 0x2d, 0xbe, 0x54, 0xb1, 0x62, 0x3c,
  0x5a, 0x28, 0xbb, 0xbc, 0xbc, 0x57, 0x5c, 0xbe, 0xee, 0x82, 0xf4, 0xbd,
  0x87, 0x81, 0x09, 0xbe, 0xfc, 0x35, 0x35, 0xbd, 0x7a, 0x3d, 0xb7, 0xbd,
  0x0c, 0x51, 0x50, 0xbe, 0xc3, 0x7e, 0x91, 0xbe, 0x73, 0x4e, 0xba, 0x3d,
  0x68, 0xfe, 0xbd, 0xbd, 0x48, 0xff, 0x08, 0x3e, 0x57, 0xff, 0x07, 0xbe,
  0x48, 0xfa, 0x8f, 0xbd, 0x3d, 0xef, 0x42, 0xbe, 0x1d, 0x89, 0x06, 0xbd,
  0xb7, 0x71, 0xa4, 0x3b, 0xc1, 0xa0, 0x1b, 0x3e, 0x17, 0xe0, 0x6b, 0xbd,
  0xfd, 0x73, 0x34, 0xbe, 0xcb, 0x30, 0x18, 0xbe, 0x23, 0x9e, 0x08, 0x3d,
  0x7a, 0xc7, 0x5a, 0xbe, 0x77, 0x72, 0x22, 0xbe, 0xf0, 0xbc, 0xd2, 0x3d,
  0xe0, 0x9e, 0xe2, 0xbd, 0xa5, 0xba, 0x1d, 0xbe, 0x31, 0x99, 0x25, 0xbe,
  0x9b, 0x91, 0x37, 0x3d, 0x40, 0x74, 0xbe, 0x3d, 0x98, 0xff, 0xf7, 0x3c,
  0x20, 0x81, 0x27, 0x3e, 0x78, 0xcd, 0x14, 0xbe, 0xf0, 0x35, 0xa1, 0xbd,
  0x8f, 0x9d, 0xfb, 0xbc, 0xe0, 0xc4, 0x8e, 0xbe, 0x53, 0x26, 0xbb, 0xbd,
  0xa7, 0xdc, 0x6e, 0xbd, 0xa0, 0x74, 0x87, 0xbd, 0xaf, 0x69, 0x43, 0x3d,
  0xe5, 0xbe, 0xec, 0x3d, 0x01, 0x4f, 0x8d, 0x3d, 0x3c, 0x6e, 0xd6, 0x3d,
  0x12, 0x6d, 0xe2, 0x3d, 0x5b, 0xf8, 0xbf, 0xbd, 0x13, 0x76, 0x29, 0xbe,
  0x98, 0x35, 0xa7, 0x3d, 0x24, 0x7c, 0xad, 0xbb, 0x25, 0x26, 0xa1, 0xbd,
  0x5b, 0x8d, 0x32, 0xbe, 0xad, 0x2e, 0xbe, 0xbd, 0xec, 0x0c, 0xf5, 0xbd,
  0xce, 0xeb, 0xe8, 0xbd, 0xb0, 0xc8, 0x39, 0xbe, 0xd7, 0x89, 0xfa, 0xbd,
  0x6f, 0xea, 0xb2, 0x3d, 0x1c, 0x4b, 0xc2, 0xbd, 0x56, 0xe5, 0xb4, 0xbc,
  0xd1, 0xfe, 0x25, 0xbd, 0x7b, 0x5e, 0xd4, 0xbc, 0xbe, 0xd4, 0x9b, 0xbd,
  0x13, 0x8e, 0x2a, 0xbd, 0xb1, 0xb7, 0xb4, 0xbd, 0x26, 0x34, 0x30, 0xbe,
  0x0b, 0xa5, 0x15, 0x3e, 0x81, 0xc0, 0xf1, 0x3d, 0x78, 0x78, 0x03, 0xbe,
  0x17, 0x7f, 0x25, 0xbd, 0xa8, 0x64, 0x6e, 0x3d, 0x9e, 0x15, 0xae, 0x3e,
  0x11, 0x0b, 0x0d, 0xbd, 0x19, 0xfb, 0xe7, 0xbe, 0x27, 0x12, 0x67, 0xbe,
  0x06, 0xff, 0x32, 0x3d, 0xa6, 0xfe, 0xed, 0x3d, 0xad, 0xf4, 0x74, 0xbe,
  0xf7, 0x2e, 0xe4, 0x3d, 0x87, 0x63, 0x55, 0xbe, 0x4c, 0x58, 0x6d, 0x3e,
  0xc7, 0xc6, 0xbb, 0xbe, 0xf9, 0xfb, 0x68, 0xbe, 0xd5, 0x2e, 0x27, 0xbe,
  0x8a, 0x3c, 0xca, 0xbd, 0x01, 0x7f, 0x7c, 0x3b, 0x26, 0x68, 0xd6, 0x3d,
  0x39, 0xa5, 0x18, 0x3e, 0x81, 0x8d, 0xa8, 0xbd, 0xbc, 0xf4, 0x86, 0xbe,
  0x69, 0x47, 0xea, 0xbd, 0x36, 0x2b, 0x7f, 0x3e, 0xcb, 0x1e, 0x1c, 0xbe,
  0xbe, 0xc4, 0x15, 0x3e, 0x85, 0x90, 0xb1, 0x3d, 0x35, 0xba, 0x06, 0x40,
  0x8c, 0x38, 0x35, 0x3e, 0xb1, 0x02, 0x05, 0x3e, 0x62, 0x69, 0xff, 0xbd,
  0x0e, 0xef, 0x6d, 0xbe, 0x85, 0x61, 0xca, 0xbd, 0x80, 0x57, 0x41, 0xbd,
  0xfc, 0x1f, 0x3a, 0x3d, 0x97, 0x1e, 0x93, 0x3e, 0xa7, 0xf9, 0xfd, 0xbc,
  0x65, 0x5a, 0x8d, 0xbe, 0x63, 0x5d, 0x41, 0x3d, 0x9d, 0x40, 0xcc, 0x3e,
  0x7e, 0x4a, 0x0e, 0xbe, 0xaa, 0xf9, 0x4e, 0xbd, 0xb4, 0xfe, 0x7e, 0xbd,
  0xfe, 0xda, 0xd2, 0x3f, 0xd0, 0xff, 0xd6, 0x3d, 0xa3, 0x7d, 0x0b, 0x3e,
  0x3f, 0x54, 0xb2, 0xbe, 0xd9, 0x35, 0x49, 0x3e, 0x09, 0xea, 0x67, 0xbd,
  0x13, 0xc1, 0x15, 0x3e, 0xe7, 0xb6, 0xed, 0x3d, 0x91, 0x4b, 0x4c, 0x3e,
  0x6a, 0x7d, 0xd9, 0x3c, 0xa7, 0xd3, 0x83, 0x3d, 0x68, 0xd2, 0x9c, 0xbd,
  0x93, 0xc6, 0xb9, 0x3e, 0x82, 0x43, 0x19, 0x3d, 0xd4, 0xd9, 0xab, 0x3d,
  0x9b, 0xef, 0x5a, 0x3e, 0xf9, 0xb1, 0x9d, 0x3f, 0x92, 0x67, 0x1e, 0x3e,
  0xb8, 0xa5, 0x1b, 0x3e, 0x39, 0xbd, 0x23, 0x3d, 0xce, 0xbc, 0x69, 0xbd,
  0x06, 0xd4, 0x29, 0x3d, 0xaa, 0xc3, 0xa4, 0x3d, 0x2b, 0x58, 0xf9, 0x3d,
  0xc2, 0x42, 0x84, 0x3e, 0xcd, 0xaf, 0xca, 0xbb, 0x6d, 0x8e, 0x1c, 0xbe,
  0x71, 0xfd, 0x18, 0x3d, 0x18, 0xe4, 0xe1, 0x3e, 0x0e, 0x0a, 0x19, 0x3e,
  0x8c, 0x1b, 0x83, 0x3e, 0x6f, 0x43, 0x5b, 0x3d, 0x1f, 0xfa, 0x82, 0x3f,
  0xdd, 0x9d, 0xc9, 0x3d, 0x0e, 0xe4, 0xdf, 0x3d, 0x4a, 0x36, 0xa7, 0xbe,
  0x7f, 0xda, 0x5e, 0xbe, 0xf1, 0x25, 0xeb, 0xbd, 0xf4, 0x08, 0xb5, 0xbd,
  0xeb, 0xb3, 0x0b, 0x3e, 0xfe, 0x5a, 0xc0, 0x3e, 0x7e, 0xa4, 0x9c, 0xbd,
  0x53, 0x0b, 0xab, 0xbe, 0xf5, 0x7b, 0x54, 0x3d, 0x0e, 0xdb, 0xf0, 0x3e,
  0x57, 0x02, 0xb0, 0x3e, 0x3c, 0xd9, 0xb5, 0xbd, 0x19, 0xb3, 0x8e, 0xbd,
  0xa3, 0x92, 0xe6, 0x3f, 0x5a, 0x90, 0x88, 0x3e, 0x76, 0x41, 0x36, 0xbe,
  0xc1, 0x6a, 0xbf, 0xbd, 0xad, 0x19, 0xc0, 0xbe, 0x2c, 0x78, 0x8d, 0xbe,
  0xdc, 0xa9, 0xe6, 0xbd, 0xff, 0xde, 0xd5, 0xbc, 0xe9, 0x92, 0xba, 0xbc,
  0x00, 0xcf, 0x02, 0xbd, 0x34, 0x45, 0x8f, 0xbe, 0xf6, 0xd2, 0xea, 0x3d,
  0xaf, 0x5a, 0xaa, 0x3e, 0xc5, 0x88, 0xbb, 0x3d, 0x0d, 0x1a, 0x23, 0xbd,
  0x84, 0x39, 0xcc, 0xbd, 0x77, 0xec, 0xcd, 0x3e, 0x0d, 0x6a, 0x4c, 0xbd,
  0x43, 0x51, 0xa7, 0xbc, 0xe4, 0x7e, 0x57, 0xbe, 0x7d, 0xdb, 0x56, 0xbe,
  0x4d, 0x90, 0x3b, 0xbc, 0x05, 0xe7, 0x30, 0x3d, 0x4e, 0xc9, 0x13, 0x3d,
  0x10, 0x5c, 0xcf, 0xbb, 0x36, 0xb9, 0x83, 0xbe, 0x2c, 0x2b, 0x2f, 0xbb,
  0xba, 0xc7, 0xd4, 0x3d, 0x18, 0xc4, 0xad, 0x3c, 0x96, 0x7c, 0x64, 0xbe,
  0x9c, 0x69, 0xc5, 0x3d, 0x7a, 0xed, 0x3b, 0xbd, 0xfd, 0xaa, 0x52, 0xbe,
  0x5e, 0xea, 0x22, 0xbe, 0x09, 0x0f, 0x39, 0x3d, 0x12, 0x5d, 0x69, 0xbe,
  0xad, 0x85, 0xed, 0x3d, 0x9c, 0x39, 0x58, 0xbd, 0x34, 0xfd, 0x44, 0xbe,
  0xde, 0xc9, 0x4f, 0x3d, 0x53, 0xf5, 0xa0, 0xbe, 0xc9, 0xc0, 0x8f, 0xbe,
  0x1a, 0xd4, 0xe0, 0xb9, 0x05, 0x71, 0xe9, 0x3d, 0x03, 0xb2, 0xd3, 0xbd,
  0xcc, 0xc4, 0x54, 0xbd, 0x8c, 0x44, 0x26, 0x3e, 0x4f, 0x16, 0x62, 0xbe,
  0xcf, 0x76, 0x1b, 0xbe, 0xc7, 0x06, 0x75, 0xbe, 0xc2, 0x4c, 0xd9, 0xbd,
  0xac, 0x39, 0x5f, 0xbe, 0xab, 0x9a, 0x46, 0x3d, 0xfc, 0x77, 0x68, 0xbe,
  0x60, 0xb3, 0x89, 0x3d, 0x33, 0x86, 0x23, 0x3e, 0x0d, 0xae, 0x8f, 0xbd,
  0xe2, 0x71, 0xec, 0xbd, 0x95, 0xe1, 0xf8, 0xbd, 0x38, 0xd1, 0x86, 0xbe,
  0x34, 0x43, 0x48, 0x3c, 0xee, 0x9e, 0x71, 0x3d, 0x08, 0x50, 0x95, 0x3b,
  0xda, 0x49, 0xb3, 0xbc, 0xc7, 0xfa, 0x30, 0x3e, 0x1f, 0xba, 0xde, 0x3d,
  0xa0, 0x2e, 0x33, 0x3e, 0xc9, 0x65, 0xd0, 0xbd, 0xb6, 0x9a, 0x20, 0xbd,
  0x54, 0xa3, 0x73, 0xbe, 0x99, 0x17, 0xcf, 0xbd, 0x17, 0xe1, 0x94, 0x3d,
  0xf5, 0xa4, 0x9f, 0xbc, 0x20, 0xcd, 0x6c, 0xbe, 0xf5, 0x62, 0xd4, 0x3d,
  0x28, 0x27, 0x33, 0xbe, 0x3b, 0xbe, 0xb9, 0x3d, 0x4e, 0x9c, 0x89, 0xbe,
  0xe8, 0x23, 0x25, 0xbd, 0x96, 0xa1, 0x1a, 0xbe, 0x8b, 0x54, 0xea, 0xbc,
  0xb9, 0x8b, 0x40, 0xbe, 0x3c, 0xee, 0x6f, 0xbc, 0x81, 0x5d, 0x54, 0x3e,
  0x2b, 0x45, 0x5e, 0xbe, 0xfd, 0xc5, 0x45, 0x3e, 0x06, 0x43, 0x39, 0xbe,
  0x5d, 0x84, 0x72, 0x3d, 0xf8, 0x22, 0x5f, 0xbe, 0x4b, 0xf0, 0x9e, 0xbe,
  0x7c, 0xaa, 0x92, 0xbc, 0x4f, 0xad, 0x11, 0xbe, 0x10, 0x70, 0x5d, 0x3d,
  0x57, 0x41, 0xa6, 0xbd, 0x5f, 0x61, 0x05, 0xbe, 0xc5, 0x80, 0xb7, 0x3d,
  0x57, 0xc1, 0xa3, 0x3d, 0xad, 0x08, 0x21, 0x3e, 0x97, 0x21, 0xa5, 0x3c,
  0xbc, 0x88, 0x10, 0x3b, 0x74, 0x0a, 0xf1, 0x3d, 0xba, 0x7a, 0x3f, 0xbe,
  0xc5, 0xbb, 0x5c, 0x3c, 0xfc, 0xc1, 0x43, 0xbd, 0xc8, 0x15, 0x33, 0xbe,
  0xc5, 0xfd, 0xa2, 0xbd, 0x81, 0xb0, 0x7a, 0x3d, 0x6b, 0x8e, 0x63, 0xbe,
  0x51, 0x94, 0x71, 0x3d, 0xbe, 0xf9, 0xc4, 0x3d, 0x31, 0xb6, 0xf2, 0xbd,
  0xd7, 0x5b, 0x50, 0x3a, 0x9c, 0x5f, 0x4a, 0xbc, 0x16, 0xf0, 0xee, 0xbb,
  0xb0, 0xfa, 0x47, 0xbc, 0x1d, 0x35, 0xc1, 0xbd, 0xa5, 0x7b, 0xe0, 0x3c,
  0x4f, 0x1b, 0x58, 0xbe, 0x2b, 0xb2, 0xfb, 0xbd, 0x06, 0x3c, 0xee, 0xbd,
  0xbe, 0x2c, 0xb1, 0xbd, 0x25, 0x98, 0xb5, 0xbe, 0xd3, 0x5e, 0x8b, 0xbb,
  0x71, 0x52, 0x4c, 0x3d, 0x52, 0x4f, 0x58, 0xbe, 0xde, 0x5e, 0x20, 0xbe,
  0x8e, 0x0d, 0x33, 0xbe, 0x68, 0xcd, 0x73, 0x3d, 0x7f, 0xc9, 0x9c, 0x3d,
  0x47, 0xb0, 0x6b, 0xbe, 0x56, 0xe7, 0x9a, 0xbc, 0xa8, 0x16, 0x09, 0x3e,
  0xb0, 0x43, 0xdd, 0xbd, 0xc0, 0x28, 0x29, 0xbd, 0xf8, 0x69, 0xd2, 0x3d,
  0x87, 0x1d, 0x52, 0x3e, 0x2e, 0x70, 0x16, 0x3f, 0xcd, 0x8e, 0x6e, 0xbe,
  0xfc, 0x02, 0x5a, 0xbd, 0x73, 0xec, 0x4f, 0xbd, 0x8b, 0xb5, 0xf0, 0x3c,
  0x39, 0xf2, 0x9e, 0x3e, 0xdb, 0x11, 0x85, 0xbc, 0x01, 0xb1, 0xb6, 0xbd,
  0x33, 0x41, 0x00, 0x3d, 0x2c, 0x82, 0x6e, 0x3e, 0xb5, 0x3e, 0x55, 0xbe,
  0x47, 0x78, 0x25, 0xbd, 0x2f, 0x50, 0xb5, 0xbc, 0xe0, 0xfb, 0x91, 0xbd,
  0xfd, 0x66, 0x4f, 0xbe, 0xde, 0x88, 0x54, 0x3e, 0xcc, 0x08, 0x1e, 0x3d,
  0x29, 0x35, 0x95, 0xbe, 0xb7, 0x7e, 0x32, 0x3e, 0x25, 0xff, 0x13, 0xbd,
  0x03, 0x6c, 0x2f, 0x3e, 0xec, 0xae, 0x59, 0xbe, 0x90, 0x5e, 0x06, 0xbe,
  0x59, 0x2f, 0x5f, 0xbe, 0x37, 0x2f, 0x27, 0x40, 0xa9, 0x87, 0x59, 0x3e,
  0x53, 0x98, 0xc7, 0xbc, 0x50, 0x94, 0x4c, 0x3e, 0xdd, 0xb6, 0xd6, 0xbc,
  0x74, 0x30, 0xbc, 0xbd, 0x77, 0x88, 0x56, 0xbe, 0x09, 0x5d, 0x82, 0x3e,
  0xd1, 0x96, 0x1a, 0x3e, 0xd8, 0x9b, 0x72, 0xbe, 0x91, 0x81, 0x42, 0x3d,
  0xc4, 0x03, 0x04, 0x3d, 0x4c, 0x1a, 0x4c, 0x3f, 0x59, 0xe7, 0x34, 0xbe,
  0x99, 0x77, 0x28, 0xbe, 0x76, 0x07, 0x5e, 0x3e, 0xd1, 0x41, 0x7b, 0x40,
  0x62, 0x72, 0xfa, 0x3d, 0x54, 0x45, 0x7e, 0x3e, 0xb8, 0x7b, 0xa4, 0xbd,
  0xaa, 0x63, 0x02, 0x3e, 0x9d, 0x06, 0x61, 0xbd, 0x8a, 0x0b, 0xba, 0x3e,
  0x9c, 0x53, 0xd9, 0xbb, 0x8e, 0xf3, 0x83, 0x3e, 0x65, 0x1a, 0xec, 0xbd,
  0x5a, 0xf6, 0x6b, 0x3c, 0x1b, 0xd1, 0x9c, 0x3d, 0x4d, 0x1d, 0x0c, 0x3f,
  0xae, 0xa9, 0x49, 0x3e, 0x02, 0x43, 0x87, 0xbe, 0x2c, 0x07, 0x43, 0x3e,
  0xe8, 0x5a, 0xc3, 0x3f, 0x25, 0x88, 0x7d, 0x3e, 0x44, 0x94, 0x3f, 0x3e,
  0x4b, 0xb9, 0x09, 0xbe, 0xf3, 0x01, 0xc4, 0x3e, 0xd4, 0xbe, 0x9f, 0xbc,
  0x28, 0xa3, 0xa3, 0x3d, 0x45, 0x67, 0x7f, 0x3e, 0xd0, 0xd6, 0xab, 0x3e,
  0x85, 0xe1, 0x04, 0xbe, 0x5b, 0x6a, 0xdb, 0xbc, 0xa8, 0xd7, 0x57, 0x3e,
  0xf2, 0x2d, 0xc9, 0x3e, 0x37, 0xee, 0x0f, 0x3e, 0xec, 0xd8, 0x89, 0xbd,
  0xe6, 0x8d, 0xbe, 0x3d, 0x3a, 0x61, 0xdb, 0x3f, 0x95, 0x2f, 0xca, 0x3e,
  0xb3, 0x87, 0x20, 0xbe, 0x08, 0xd5, 0xd3, 0xbd, 0x4c, 0x67, 0x48, 0x3e,
  0xcc, 0x71, 0x0e, 0xbe, 0x19, 0xc7, 0x07, 0xbe, 0xaa, 0x4b, 0x04, 0x3e,
  0xa5, 0xbd, 0x80, 0x3e, 0xc8, 0xb7, 0x63, 0xbe, 0xc2, 0x51, 0xa6, 0xbd,
  0xdf, 0xaa, 0x4b, 0x3d, 0x74, 0xc4, 0xb5, 0x3d, 0xb7, 0xe3, 0x14, 0xbd,
  0x90, 0x49, 0x3b, 0x3e, 0x03, 0x45, 0x9b, 0x3d, 0x37, 0x50, 0x01, 0x40,
  0x9e, 0xe6, 0x6d, 0x3e, 0x8f, 0xd6, 0x25, 0x3d, 0xe1, 0xf2, 0x61, 0xbd,
  0x5f, 0xc9, 0xaa, 0xbe, 0x16, 0x10, 0x6c, 0xbe, 0x95, 0x34, 0x57, 0xbe,
  0xc7, 0x3b, 0xfb, 0xbd, 0xcb, 0xad, 0x4c, 0xbe, 0x79, 0xbb, 0x02, 0xbe,
  0x02, 0xe0, 0x54, 0xbc, 0x8b, 0x0d, 0x54, 0x3e, 0xa9, 0x8f, 0x65, 0x3e,
  0x1e, 0x0f, 0x9d, 0x3c, 0x78, 0x21, 0x13, 0x3e, 0xc6, 0xde, 0xa3, 0xbe,
  0x7b, 0xad, 0x57, 0x3e, 0x75, 0x86, 0x26, 0xbe, 0x74, 0x56, 0xc2, 0x3d,
  0x2a, 0x3d, 0x5c, 0x3e, 0x24, 0x29, 0x34, 0x3e, 0xb5, 0x37, 0x9a, 0xbd,
  0x60, 0x56, 0x1d, 0x3d, 0x2b, 0x35, 0x15, 0x3e, 0xa8, 0xad, 0xa3, 0xbe,
  0xd2, 0xfe, 0x66, 0x3d, 0xab, 0x66, 0x83, 0x3e, 0x1e, 0x4f, 0xe2, 0x3c,
  0x31, 0xcf, 0xf9, 0xbc, 0x20, 0x81, 0xe9, 0xbe, 0x0b, 0xcc, 0x3c, 0xbf,
  0x77, 0xa3, 0x4d, 0x3e, 0x0c, 0x78, 0xc9, 0xbe, 0x7c, 0x0b, 0x2e, 0xbe,
  0x9d, 0x13, 0x82, 0x3e, 0x51, 0xe7, 0x95, 0xbe, 0x1e, 0x91, 0x76, 0x3e,
  0x4b, 0x38, 0x29, 0x3e, 0xc1, 0x34, 0x0e, 0xbd, 0x4b, 0x74, 0x10, 0xbd,
  0x4d, 0x27, 0x7a, 0xbc, 0x7c, 0xf2, 0x9a, 0xbd, 0x34, 0xb1, 0x0b, 0xbd,
  0x5d, 0x49, 0xbe, 0xbd, 0x56, 0x1e, 0x06, 0x3e, 0x8d, 0x6d, 0x8c, 0xbc,
  0x31, 0xe0, 0x57, 0xbe, 0xe0, 0x64, 0x19, 0x3e, 0x9e, 0xf4, 0xbf, 0xbd,
  0x7d, 0x23, 0xe2, 0x3d, 0x1d, 0x71, 0x90, 0xbe, 0x9d, 0x3d, 0x06, 0x3d,
  0x6a, 0xeb, 0xdf, 0x3e, 0x1c, 0xbd, 0x23, 0xbd, 0x89, 0xaf, 0x42, 0xbc,
  0x86, 0x38, 0x4e, 0xbe, 0x1c, 0x3e, 0x06, 0xbd, 0x4a, 0xa2, 0x00, 0xbe,
  0xe3, 0xa8, 0x3a, 0xbe, 0x46, 0xa8, 0x0b, 0x3e, 0x55, 0x42, 0x06, 0xbf,
  0xda, 0x34, 0x8e, 0x3e, 0xd4, 0x2f, 0x02, 0x3e, 0x79, 0xc8, 0xea, 0x3d,
  0xbc, 0x9e, 0x21, 0x3e, 0x5a, 0x8d, 0x84, 0xbe, 0x5a, 0xbe, 0xed, 0xbe,
  0xe9, 0x30, 0x96, 0xba, 0xbd, 0xef, 0x60, 0xbb, 0xbd, 0xec, 0xe2, 0xbe,
  0x02, 0xba, 0x58, 0xbc, 0xee, 0xd1, 0xa9, 0xbd, 0x1b, 0x4f, 0x60, 0xbe,
  0xcf, 0x34, 0xe4, 0xbd, 0x5a, 0xc7, 0xb0, 0xbe, 0xb8, 0x15, 0x49, 0xbe,
  0x9e, 0xad, 0x2b, 0xbf, 0x0a, 0x21, 0xa8, 0x3e, 0xb8, 0x77, 0x1c, 0xbd,
  0x75, 0x83, 0x10, 0xbf, 0xfa, 0xe3, 0x06, 0x3e, 0x89, 0x5c, 0xba, 0xbe,
  0xe6, 0x72, 0x09, 0xbf, 0x6d, 0x3d, 0xea, 0xbd, 0xa1, 0xa4, 0xb9, 0xbe,
  0x15, 0xad, 0xa6, 0xbe, 0x9a, 0x57, 0xbc, 0xbd, 0xa5, 0x24, 0x8e, 0x3e,
  0x2d, 0xf8, 0x05, 0xbb, 0xa1, 0x0f, 0xac, 0xbd, 0x62, 0x65, 0x40, 0x3d,
  0xf2, 0xe4, 0x32, 0xbe, 0xad, 0xd7, 0xfd, 0xbd, 0x3c, 0x6b, 0xa3, 0x3e,
  0x5f, 0x7b, 0xed, 0x3d, 0x07, 0xf3, 0x9a, 0xbe, 0xb7, 0x74, 0x94, 0x3d,
  0x26, 0xd7, 0x5e, 0xbe, 0x7f, 0x18, 0xcb, 0xbe, 0xbd, 0x8f, 0x11, 0xbd,
  0x8f, 0x9e, 0x96, 0xbe, 0x46, 0xe5, 0x35, 0xbe, 0xfb, 0xbb, 0xb8, 0xbb,
  0x81, 0x3c, 0x30, 0x3e, 0xac, 0x3e, 0xfe, 0xbd, 0x75, 0x94, 0xf9, 0xbc,
  0x93, 0x2f, 0x79, 0x3e, 0x37, 0x1c, 0x67, 0xbe, 0x4c, 0xc7, 0xaa, 0x3d,
  0xaf, 0x90, 0x05, 0xbe, 0x13, 0xd9, 0x2c, 0x3d, 0xf2, 0x72, 0x01, 0x3e,
  0x8f, 0x3b, 0x70, 0xbd, 0xbe, 0xf4, 0x7c, 0xbe, 0xb2, 0xbc, 0x62, 0x3e,
  0x62, 0xaa, 0xc0, 0xbc, 0x0e, 0x5a, 0x7f, 0x3e, 0x70, 0x9f, 0x34, 0xbc,
  0x6d, 0xba, 0x87, 0x3d, 0x49, 0xea, 0x08, 0xbe, 0xef, 0x0b, 0x5f, 0x3d,
  0x55, 0x1f, 0x46, 0xbd, 0xc1, 0x0a, 0x33, 0xbd, 0xf9, 0x02, 0x9a, 0xbc,
  0x1c, 0x64, 0xe4, 0xbd, 0xbd, 0x1b, 0xfd, 0xbd, 0x31, 0xa2, 0x58, 0xbc,
  0x4f, 0x49, 0x25, 0xbe, 0x88, 0x7e, 0xa9, 0xbd, 0xcf, 0xdb, 0xa9, 0xbd,
  0x64, 0x73, 0xbf, 0xbd, 0x30, 0xb8, 0x93, 0x3d, 0xaa, 0x41, 0xa6, 0x3d,
  0x14, 0xbe, 0xe0, 0x3d, 0xf2, 0xaf, 0x65, 0x3d, 0x0c, 0x67, 0x00, 0x3e,
  0x60, 0xc4, 0x61, 0xbd, 0x8d, 0xab, 0x36, 0xbe, 0xdb, 0x89, 0x1a, 0xbe,
  0x75, 0xfe, 0x2e, 0x3e, 0xd3, 0x2a, 0x6b, 0xbe, 0x87, 0xf1, 0x56, 0xbe,
  0x34, 0x63, 0x31, 0xbd, 0x67, 0x40, 0xaa, 0x3d, 0x6a, 0x51, 0x93, 0xbc,
  0xf7, 0x0f, 0x7c, 0xbe, 0x5a, 0x5d, 0x57, 0xbd, 0x35, 0xd7, 0xc3, 0x3d,
  0xa6, 0xc8, 0xc3, 0xbd, 0xb6, 0x8f, 0x16, 0xbe, 0xd5, 0xc9, 0x1e, 0xbe,
  0x03, 0x49, 0x97, 0xbd, 0xf3, 0x22, 0x42, 0xbe, 0xfe, 0xdb, 0x56, 0xbe,
  0x44, 0xb3, 0x57, 0x3d, 0x8c, 0x38, 0x1d, 0x3e, 0xf0, 0xf8, 0x0d, 0xbd,
  0x1d, 0x2a, 0xdc, 0x3d, 0x73, 0xac, 0x44, 0x3d, 0x59, 0x6e, 0xd0, 0x3d,
  0x59, 0xe5, 0x31, 0xbe, 0x22, 0xcc, 0x4c, 0xbd, 0x01, 0xec, 0x8b, 0x3d,
  0x97, 0x5b, 0x68, 0x3e, 0x7d, 0xf5, 0x35, 0x3e, 0x92, 0xee, 0x21, 0x3e,
  0xa0, 0xba, 0x37, 0xbe, 0xb4, 0xf8, 0x19, 0x3e, 0x1a, 0x14, 0xbc, 0x3c,
  0xbc, 0xd8, 0x45, 0xbe, 0x86, 0x21, 0xb8, 0x3b, 0x96, 0x1e, 0x1c, 0x3e,
  0x12, 0xfd, 0x29, 0xbd, 0x7f, 0x36, 0x48, 0xbe, 0x72, 0x20, 0x03, 0x3e,
  0x52, 0xb2, 0x43, 0x3e, 0xaf, 0x92, 0x60, 0xbd, 0x08, 0x23, 0xaa, 0x3d,
  0xd5, 0x0d, 0x72, 0x3e, 0x5a, 0xcc, 0x09, 0xbe, 0xe0, 0xf2, 0x3a, 0xbe,
  0x1f, 0x81, 0x9c, 0x3c, 0x63, 0xc5, 0x5d, 0xbd, 0x97, 0xb9, 0x88, 0xbc,
  0xcf, 0x53, 0xe3, 0x3c, 0xc5, 0x1e, 0x10, 0xbe, 0xac, 0x9c, 0xef, 0x3b,
  0x1c, 0x21, 0xda, 0x3d, 0xed, 0x40, 0x75, 0xbd, 0xea, 0x48, 0x60, 0x3d,
  0x1f, 0x63, 0x3f, 0xbe, 0x0f, 0x2f, 0x27, 0xbe, 0x81, 0x60, 0x50, 0x3d,
  0xb4, 0x53, 0x72, 0x3c, 0x7a, 0xc5, 0xd1, 0xbd, 0x32, 0xae, 0xc7, 0x3c,
  0x87, 0x04, 0x80, 0x3d, 0x20, 0x6e, 0xc4, 0xbd, 0x46, 0xf7, 0x59, 0xbe,
  0x5d, 0xfe, 0x7c, 0x3b, 0xc0, 0x1c, 0x42, 0xbe, 0xe0, 0x92, 0x51, 0xbe,
  0x73, 0x05, 0x58, 0xbe, 0xb9, 0xdc, 0xf8, 0x3d, 0x21, 0x7c, 0x5d, 0xbe,
  0x54, 0xe5, 0x9a, 0x3d, 0xd9, 0x55, 0x02, 0x3e, 0xeb, 0xbf, 0x8f, 0x3d,
  0x6a, 0xc5, 0x86, 0xbd, 0x5a, 0x9d, 0x19, 0x3d, 0xe3, 0xbe, 0xe5, 0x3d,
  0xce, 0xa8, 0x34, 0x3e, 0x4c, 0x85, 0x0f, 0xbe, 0x41, 0x5c, 0x42, 0x3d,
  0xa1, 0xfb, 0xaa, 0x3c, 0xe6, 0x00, 0x16, 0x3d, 0xea, 0x80, 0x3a, 0xbe,
  0xcb, 0x7c, 0x0b, 0xbe, 0xcc, 0xbf, 0x1f, 0xbe, 0xd5, 0x8d, 0x91, 0x3d,
  0xd5, 0xed, 0x6a, 0xbd, 0xbf, 0x2c, 0xc4, 0x3c, 0x81, 0x02, 0x24, 0xbe,
  0x00, 0xbf, 0xb0, 0x3d, 0xf6, 0x9e, 0x0c, 0xbc, 0x20, 0x16, 0x84, 0xbd,
  0x0c, 0x4c, 0x95, 0x3c, 0x2a, 0x9b, 0xd8, 0xbd, 0x9b, 0x49, 0x22, 0x3d,
  0x3b, 0x2d, 0x6a, 0xbe, 0xa4, 0x50, 0x82, 0xbd, 0xeb, 0xab, 0x2e, 0xbe,
  0xe9, 0xfa, 0x0c, 0xbe, 0xd4, 0x2a, 0x8c, 0xbd, 0xc0, 0xbd, 0x94, 0x3d,
  0x61, 0x46, 0x79, 0xbd, 0x7f, 0x61, 0x33, 0xbe, 0x32, 0xed, 0xe5, 0x3d,
  0x1f, 0x45, 0x11, 0x3d, 0xbe, 0x28, 0x8c, 0xbc, 0xe0, 0x03, 0xd3, 0xbc,
  0xc7, 0x0b, 0x71, 0xbe, 0x96, 0x4a, 0x5d, 0x3d, 0x40, 0x7a, 0x00, 0x3e,
  0xab, 0x8a, 0xcb, 0x3d, 0x6f, 0x18, 0x36, 0xbe, 0x83, 0xbb, 0x4b, 0xbd,
  0xdc, 0x8b, 0x33, 0xbe, 0x26, 0x2e, 0xcf, 0xbe, 0xe4, 0xc2, 0x1f, 0x3d,
  0xad, 0x0b, 0xb8, 0xbd, 0x2f, 0x52, 0x72, 0x3e, 0x9c, 0x7c, 0x7c, 0xbe,
  0x42, 0x60, 0x99, 0x3d, 0x03, 0xa1, 0x63, 0x3e, 0x19, 0xf6, 0xfe, 0xbe,
  0x8d, 0x4a, 0xa0, 0x3e, 0x4c, 0x90, 0xf2, 0xbe, 0x79, 0x75, 0x8a, 0xbe,
  0xf2, 0x22, 0x53, 0x3e, 0xd7, 0x37, 0x6f, 0xbe, 0x64, 0x05, 0x63, 0xbe,
  0xb4, 0x73, 0x85, 0xbd, 0x49, 0xaa, 0xfd, 0xbe, 0xd2, 0x74, 0x0e, 0xbf,
  0x92, 0x43, 0xc6, 0x3b, 0xfa, 0xb9, 0x89, 0x3e, 0x91, 0x88, 0x88, 0x3e,
  0x51, 0x97, 0xb9, 0xbe, 0x15, 0x1b, 0x28, 0xbd, 0x1f, 0xb2, 0x20, 0x3d,
  0xa3, 0xe5, 0x79, 0xbe, 0xb0, 0x36, 0xad, 0x3d, 0xd6, 0xa4, 0x00, 0xbf,
  0xf4, 0x00, 0xa7, 0x3d, 0x95, 0xed, 0x96, 0x3e, 0x56, 0x0f, 0xa6, 0xbb,
  0xe7, 0x22, 0x9d, 0x3e, 0x2a, 0x88, 0x0c, 0x3e, 0xc7, 0xed, 0x32, 0xbe,
  0x0e, 0x18, 0x76, 0xbe, 0xc7, 0x5a, 0x08, 0x3d, 0xde, 0x89, 0xdc, 0x3b,
  0xb9, 0x36, 0xd6, 0x3d, 0x3f, 0x14, 0xe7, 0xbe, 0xba, 0xdd, 0x7f, 0xbd,
  0x60, 0x08, 0x4b, 0x3d, 0x8d, 0xe7, 0xc8, 0x3e, 0xa9, 0xd1, 0x8d, 0x3d,
  0x66, 0x43, 0x44, 0xbe, 0x53, 0x16, 0xef, 0x3d, 0xd9, 0xbc, 0x26, 0x3e,
  0xcc, 0xc2, 0x94, 0xbd, 0x30, 0xdb, 0x04, 0x3e, 0x00, 0x96, 0xb7, 0x3b,
  0x6e, 0xe8, 0x57, 0xbc, 0x23, 0x90, 0x74, 0xbe, 0x9b, 0xd1, 0xc6, 0x3c,
  0xdf, 0xe1, 0x35, 0x3e, 0x3a, 0x79, 0xce, 0x3d, 0xfe, 0xb1, 0x0e, 0xbe,
  0xde, 0x4a, 0xc7, 0xbc, 0x40, 0xc1, 0x66, 0xbd, 0xb3, 0xe6, 0xab, 0x3e,
  0x03, 0xf1, 0x0e, 0x3e, 0x5c, 0x8a, 0x43, 0xbe, 0xac, 0x2c, 0x27, 0xbd,
  0x39, 0x57, 0x03, 0x3e, 0x53, 0x8c, 0xc1, 0x3e, 0xf8, 0xd4, 0x43, 0x3d,
  0x32, 0x3e, 0x19, 0x3d, 0xae, 0x38, 0xe0, 0xbe, 0xd1, 0x32, 0xa0, 0xbe,
  0x2d, 0x9e, 0x98, 0x3d, 0xd9, 0x4b, 0x01, 0xbd, 0x6f, 0xc3, 0x35, 0x3e,
  0x8b, 0x8e, 0xf1, 0xbd, 0xeb, 0x99, 0xe9, 0xbd, 0xe2, 0x8b, 0x41, 0xbe,
  0x02, 0x84, 0x52, 0x3e, 0x04, 0x59, 0x3a, 0x3e, 0xf1, 0x8d, 0x2f, 0xbe,
  0x54, 0xf6, 0x6d, 0x3a, 0xfc, 0x1c, 0xa0, 0x3e, 0xb5, 0xbc, 0xa5, 0x3e,
  0x17, 0xef, 0x5c, 0x3e, 0xe0, 0x60, 0x2d, 0x3e, 0x0b, 0xc9, 0x25, 0xbf,
  0xc5, 0x77, 0x80, 0xbe, 0xb7, 0x2a, 0x00, 0x3d, 0x43, 0x42, 0xa0, 0x3d,
  0x84, 0x2f, 0x36, 0xbd, 0x13, 0x6f, 0x74, 0xbe, 0x2e, 0xe2, 0x1b, 0xbe,
  0x2f, 0x1d, 0x7b, 0x3d, 0x81, 0x40, 0x2e, 0x3e, 0x29, 0xa4, 0x11, 0x3e,
  0x98, 0x0f, 0x52, 0xbe, 0x73, 0x1c, 0x36, 0xbe, 0x6c, 0x09, 0xb7, 0x3e,
  0x1f, 0x92, 0x8a, 0x3d, 0x9d, 0xfd, 0x76, 0xbd, 0x0b, 0xdc, 0xff, 0xbc,
  0xd4, 0xe2, 0x0a, 0xbd, 0x44, 0xd1, 0xc0, 0xbd, 0x18, 0x65, 0x19, 0xbd,
  0xe3, 0x6e, 0xc9, 0x3d, 0x04, 0xd9, 0xaa, 0xbd, 0x2d, 0x45, 0x00, 0xbf,
  0x18, 0x90, 0x43, 0xbd, 0x24, 0x8c, 0xbd, 0x3e, 0x73, 0x58, 0xb9, 0xbd,
  0xd0, 0x74, 0xa2, 0xbe, 0x7d, 0x44, 0xf3, 0xbc, 0xd0, 0xc9, 0x8c, 0xbd,
  0x98, 0x48, 0xc3, 0xbe, 0xa2, 0x33, 0x9f, 0x3d, 0x17, 0xa1, 0xdd, 0xbd,
  0x69, 0x09, 0x0d, 0xbe, 0x4d, 0x3d, 0xd1, 0x3d, 0x98, 0xbb, 0x08, 0xbf,
  0xc5, 0x4a, 0x4a, 0x3d, 0xdf, 0xa4, 0xb1, 0x3e, 0xcc, 0x9c, 0x0c, 0x3e,
  0xcb, 0x4c, 0x97, 0xbd, 0x74, 0x35, 0x12, 0xbf, 0xba, 0x1f, 0xdf, 0x3c,
  0x7a, 0x58, 0x0a, 0x3e, 0xf1, 0x5a, 0xb0, 0xbd, 0x24, 0x21, 0x6d, 0xbe,
  0xd6, 0xa1, 0xd0, 0x3d, 0x40, 0x8d, 0xf8, 0xbd, 0x53, 0xb1, 0xd5, 0x3e,
  0xa2, 0x0a, 0x74, 0xbc, 0xeb, 0x23, 0x33, 0xbd, 0xec, 0x35, 0x46, 0xbe,
  0x5a, 0xca, 0x01, 0xbe, 0xe2, 0xb1, 0x2e, 0x3d, 0x7e, 0x75, 0x02, 0xbd,
  0xad, 0x8d, 0xab, 0x3d, 0xeb, 0x3e, 0x77, 0x3d, 0x37, 0x03, 0x35, 0xbe,
  0xea, 0xe8, 0x87, 0x3d, 0xda, 0x31, 0xac, 0x3d, 0xc9, 0x07, 0xb8, 0x3e,
  0xb9, 0x0c, 0x13, 0x3d, 0x25, 0xa9, 0x0f, 0xbe, 0xcd, 0x89, 0xda, 0x3c,
  0x7e, 0x1c, 0xfd, 0x3e, 0x54, 0x07, 0x53, 0x3d, 0x4a, 0xb5, 0x75, 0x3d,
  0x2c, 0x63, 0x82, 0xbe, 0x4a, 0x65, 0x50, 0xbe, 0x19, 0x0e, 0xb2, 0x3b,
  0xb0, 0xf2, 0x03, 0xbf, 0x08, 0xaa, 0x56, 0x3d, 0x52, 0x77, 0x0f, 0xbf,
  0x64, 0x53, 0x28, 0x3e, 0x09, 0x9e, 0x22, 0x3e, 0x89, 0x8e, 0x93, 0x3d,
  0x79, 0xff, 0x58, 0xbd, 0x7e, 0x6d, 0xa2, 0xbc, 0x4f, 0xa3, 0x39, 0xbe,
  0x68, 0x81, 0x80, 0xbd, 0xf1, 0x85, 0xa6, 0xbd, 0xc7, 0x62, 0x18, 0xbe,
  0x52, 0xb6, 0xf6, 0xbc, 0x9d, 0x13, 0x0b, 0xbe, 0xfe, 0x8e, 0x68, 0xbe,
  0xd6, 0x6e, 0xe2, 0x3c, 0xc1, 0x25, 0x9f, 0xbe, 0xcb, 0x0a, 0xce, 0x3d,
  0x6d, 0x3c, 0x17, 0xbf, 0x35, 0xc7, 0xe8, 0x3d, 0x91, 0x69, 0xa3, 0x3e,
  0x46, 0x29, 0x21, 0xbe, 0xfe, 0x5f, 0x52, 0x3e, 0x55, 0x5d, 0x00, 0xbf,
  0xb1, 0x23, 0xbe, 0xbc, 0xdb, 0xf0, 0x86, 0x3c, 0xe6, 0x23, 0x65, 0xbe,
  0x02, 0x62, 0x4d, 0xbe, 0x5c, 0x7d, 0x17, 0xbd, 0x0e, 0x4b, 0x0c, 0xbe,
  0xf6, 0x99, 0x44, 0xbe, 0xd4, 0xa7, 0x31, 0x3c, 0xb0, 0xba, 0x8a, 0xbd,
  0xd6, 0xec, 0xbd, 0xba, 0x21, 0x7c, 0x7b, 0xbe, 0xfb, 0xf4, 0x9a, 0xbd,
  0x81, 0x8e, 0x98, 0x3e, 0xb0, 0x98, 0x44, 0x3d, 0x8a, 0xd5, 0x2f, 0xbe,
  0x32, 0x06, 0x32, 0xbe, 0xb4, 0x0b, 0x28, 0xbe, 0x82, 0xdf, 0x22, 0xbe,
  0x1e, 0x99, 0xfb, 0xbd, 0x5f, 0x44, 0xd0, 0xbc, 0x7d, 0xce, 0x30, 0x3d,
  0x23, 0x4a, 0xb8, 0xbc, 0x78, 0x8b, 0x80, 0xbe, 0x6d, 0x80, 0x28, 0xbc,
  0x66, 0xf4, 0x49, 0x3e, 0xcd, 0xd7, 0x74, 0xbd, 0x9e, 0x4c, 0x24, 0xbe,
  0x87, 0xbc, 0x65, 0xbd, 0x61, 0x00, 0xb8, 0x3e, 0x5f, 0xdf, 0xa3, 0x3c,
  0xb7, 0xca, 0xb5, 0x3d, 0xc5, 0x80, 0x9f, 0xbe, 0x3e, 0x7e, 0xdd, 0xbd,
  0xf0, 0x47, 0x86, 0xbe, 0x83, 0x0e, 0xf9, 0x3d, 0xbb, 0xc2, 0x3f, 0xbe,
  0x8c, 0xd7, 0x19, 0xb9, 0x4c, 0xbb, 0x79, 0x3d, 0x78, 0x80, 0x35, 0xbe,
  0x49, 0x85, 0x0b, 0x3c, 0xd4, 0x1f, 0x68, 0x3e, 0x41, 0xb3, 0x39, 0xbe,
  0xc4, 0xc5, 0x9c, 0xbd, 0xdb, 0xd9, 0xf0, 0xbd, 0xe8, 0x2f, 0xfd, 0x3d,
  0x17, 0x13, 0xbb, 0x3c, 0xc3, 0x9d, 0xa9, 0xbd, 0xfa, 0x9b, 0xf6, 0xbd,
  0x57, 0xf1, 0xcc, 0x3d, 0x2c, 0x6f, 0xb9, 0xbc, 0xbd, 0xc3, 0xb5, 0xbc,
  0x8a, 0x35, 0xa8, 0x3d, 0x42, 0xf7, 0xb7, 0x3d, 0x58, 0xb6, 0x9b, 0xbe,
  0x31, 0x5b, 0x71, 0xbe, 0x64, 0x4d, 0xc7, 0xbd, 0xd9, 0x3d, 0xa6, 0xbe,
  0xc8, 0x96, 0x9d, 0xbe, 0x29, 0xe8, 0x0e, 0xbf, 0x3c, 0xa7, 0x91, 0xbe,
  0xad, 0x6b, 0xfb, 0xbe, 0xc2, 0x49, 0x45, 0xbe, 0x1b, 0x09, 0xa3, 0xbe,
  0x4d, 0x5a, 0x6e, 0xbd, 0x83, 0x6d, 0xb8, 0xbe, 0xcb, 0x86, 0xc1, 0x3e,
  0x87, 0xb4, 0x2e, 0xbe, 0xc1, 0x9f, 0xd8, 0xbe, 0xfc, 0x2b, 0x69, 0xbe,
  0x9d, 0x33, 0x6c, 0xbe, 0x93, 0xa3, 0xe8, 0x3d, 0x79, 0xf4, 0x08, 0xbe,
  0x9d, 0x92, 0x37, 0xbe, 0xaa, 0xe2, 0x82, 0xbe, 0x5c, 0x70, 0x0d, 0xbe,
  0x2b, 0xab, 0x8b, 0xbe, 0x98, 0xed, 0xaf, 0x3c, 0x32, 0xa1, 0x3b, 0xbd,
  0x7f, 0x6d, 0x1b, 0xbd, 0x0a, 0x55, 0x5a, 0xbd, 0x56, 0xe7, 0x9a, 0xbd,
  0x84, 0x01, 0xe4, 0xbd, 0xb1, 0x31, 0xb6, 0x3d, 0xb7, 0xc2, 0xee, 0x3c,
  0xb4, 0x38, 0x5d, 0xbe, 0x31, 0xe6, 0x35, 0xbe, 0xf3, 0xb3, 0x99, 0xbe,
  0x64, 0x15, 0x1a, 0xbe, 0xa6, 0xf5, 0x6a, 0xbc, 0x4a, 0xf2, 0x85, 0x3b,
  0x77, 0x51, 0x84, 0x3d, 0x72, 0x00, 0x23, 0xbe, 0x3d, 0x9b, 0xb9, 0x3c,
  0xa3, 0x1b, 0x7b, 0xbe, 0x4e, 0x54, 0xff, 0x3d, 0xa9, 0xc3, 0x83, 0xbe,
  0xfb, 0x0f, 0x81, 0xbe, 0xb1, 0xe8, 0x0d, 0x3e, 0x9f, 0x6c, 0xd5, 0x3d,
  0x5d, 0x17, 0x6f, 0xbe, 0xb2, 0x27, 0xeb, 0xbe, 0x61, 0x2e, 0xc8, 0xbe,
  0xba, 0x49, 0xaa, 0xbd, 0x97, 0xb7, 0x2c, 0xbd, 0x68, 0x1d, 0x16, 0xbe,
  0x42, 0x7a, 0x0c, 0xbe, 0x75, 0xb7, 0x60, 0xbe, 0xc3, 0xa6, 0xb4, 0xbe,
  0x1a, 0x69, 0x89, 0xbe, 0x3f, 0x7c, 0x4d, 0x3d, 0x51, 0x02, 0xda, 0xbc,
  0xb4, 0x76, 0x33, 0xbd, 0x66, 0x7c, 0x06, 0xbb, 0x52, 0x4a, 0x01, 0xbe,
  0xfc, 0x74, 0x09, 0xbe, 0xda, 0x28, 0x04, 0xbd, 0xf7, 0x0c, 0x0a, 0xbf,
  0xfc, 0x49, 0x13, 0xbe, 0x97, 0x04, 0x54, 0xbe, 0xf1, 0x22, 0x00, 0xbe,
  0xd4, 0x61, 0x32, 0xbd, 0xb1, 0x7b, 0xd4, 0xbd, 0x5f, 0x63, 0x20, 0xbe,
  0x42, 0x9e, 0xd7, 0xbe, 0x42, 0x80, 0x57, 0xbe, 0xc1, 0x43, 0x6a, 0xbc,
  0x9b, 0xe2, 0x07, 0x3e, 0x3e, 0xb0, 0x61, 0xbe, 0xb9, 0x63, 0xc7, 0xbd,
  0xa0, 0xc3, 0x11, 0x3e, 0xe9, 0x0d, 0x71, 0xbb, 0x7f, 0x64, 0x80, 0xbe,
  0x4d, 0x70, 0xc6, 0xbe, 0xbc, 0xc6, 0x1b, 0x3e, 0x4c, 0xfc, 0x80, 0x3b,
  0xec, 0x40, 0xa2, 0xbd, 0x57, 0x48, 0xe1, 0x3e, 0x53, 0xfb, 0xa7, 0xbe,
  0x1c, 0xc6, 0x0f, 0xbe, 0xc5, 0x77, 0x3b, 0xbd, 0x59, 0x00, 0xef, 0x3d,
  0x98, 0xfe, 0xcd, 0x3d, 0xb0, 0x69, 0x81, 0xbd, 0x39, 0x84, 0x80, 0xbe,
  0x29, 0x14, 0xfa, 0xb8, 0xbf, 0xc6, 0x13, 0xbe, 0x79, 0x9b, 0x3f, 0x3e,
  0x79, 0xd4, 0x93, 0x3d, 0x98, 0x97, 0x70, 0x3d, 0xc9, 0x80, 0x2d, 0x3e,
  0x61, 0x79, 0x91, 0xbe, 0xf5, 0xf9, 0x2f, 0xbd, 0xe8, 0xe8, 0x8e, 0x3e,
  0x1c, 0xc7, 0xc2, 0x3c, 0x14, 0x80, 0x54, 0x3a, 0x19, 0x5f, 0xd9, 0xbd,
  0x8c, 0x64, 0x49, 0xbe, 0x3c, 0x94, 0x24, 0x3e, 0x20, 0x24, 0x20, 0x3e,
  0x03, 0xb5, 0x6a, 0xbd, 0xb4, 0x3e, 0x84, 0x3e, 0xeb, 0xe7, 0x9a, 0xbe,
  0x31, 0x0e, 0xfc, 0xbd, 0x69, 0x2d, 0x2c, 0x3e, 0x5b, 0x9d, 0x30, 0x3e,
  0xff, 0xf2, 0x99, 0xbe, 0xbe, 0x0f, 0x11, 0xbe, 0xa6, 0xc1, 0xdc, 0xbd,
  0x4c, 0x56, 0x1a, 0xbe, 0x25, 0xdb, 0x68, 0xbe, 0x90, 0xca, 0x08, 0xbf,
  0xaf, 0x06, 0x2e, 0xbf, 0x3e, 0x25, 0x6e, 0xbe, 0xd2, 0x5e, 0xac, 0xbe,
  0xc6, 0x58, 0xd6, 0xbe, 0xbc, 0x60, 0xd6, 0xbe, 0xc1, 0xdd, 0x5f, 0xbe,
  0xfa, 0xe0, 0x0a, 0xbb, 0x49, 0xd4, 0x84, 0x3c, 0x6d, 0x17, 0xc1, 0xbe,
  0x37, 0xaf, 0xc8, 0xbe, 0x2d, 0x93, 0x98, 0xbd, 0x2d, 0x49, 0x85, 0xbe,
  0x47, 0xe6, 0x90, 0xbd, 0x7c, 0xb1, 0x02, 0xbc, 0xf5, 0x7d, 0x67, 0xbe,
  0xc1, 0x87, 0x27, 0xbc, 0x7f, 0x4c, 0xc7, 0xbe, 0x6b, 0x96, 0xb7, 0xbd,
  0xc6, 0x79, 0x0e, 0xbe, 0xea, 0xf4, 0x14, 0x3e, 0x81, 0x6b, 0xa1, 0xbe,
  0x66, 0x3a, 0x38, 0xbe, 0xdf, 0x8d, 0x90, 0x3d, 0x12, 0xe1, 0x8b, 0xbe,
  0xb3, 0x61, 0xa0, 0xbd, 0xa1, 0x46, 0x0f, 0xbf, 0x42, 0x1f, 0x6a, 0xbe,
  0x43, 0xdb, 0x98, 0xbe, 0x3f, 0xeb, 0x91, 0xbd, 0x23, 0x93, 0xa1, 0xbe,
  0x5a, 0xa9, 0xce, 0xbe, 0x70, 0xf5, 0x3b, 0xbd, 0x89, 0xf3, 0xb8, 0xbe,
  0x0f, 0x37, 0xd5, 0xba, 0x50, 0xea, 0x3d, 0xbe, 0x1b, 0x65, 0xf1, 0xbd,
  0x41, 0xfb, 0x08, 0x3d, 0x0c, 0x73, 0x92, 0xbe, 0xd1, 0x80, 0xc9, 0x3d,
  0xe9, 0x03, 0x46, 0xbd, 0x16, 0x00, 0x1d, 0xbe, 0x66, 0x92, 0x0c, 0xbf,
  0xd6, 0x0b, 0x9f, 0xbd, 0x01, 0x26, 0xa5, 0xbe, 0x92, 0xd0, 0x11, 0xbe,
  0xa6, 0x41, 0x5d, 0xbe, 0xc6, 0x15, 0xa6, 0xbe, 0x0d, 0xb9, 0xce, 0xbe,
  0x4f, 0xe4, 0xa2, 0xbe, 0x01, 0xb7, 0x15, 0x3d, 0x33, 0x71, 0xf5, 0xbd,
  0xd6, 0x2e, 0x53, 0x3d, 0xf8, 0xd1, 0xe0, 0xbd, 0x4e, 0xd0, 0x3e, 0xbe,
  0xa6, 0x69, 0xf2, 0xbd, 0xe4, 0x3e, 0xa7, 0xbc, 0x8b, 0x03, 0xb8, 0xbe,
  0xa0, 0xfb, 0x2f, 0xbf, 0x8a, 0x38, 0x98, 0x3e, 0xbf, 0xe7, 0xc5, 0xbd,
  0x55, 0x14, 0x4f, 0xbd, 0x18, 0xb7, 0xf7, 0x3e, 0x5b, 0xab, 0x0b, 0xbc,
  0x66, 0x70, 0xed, 0x3d, 0xec, 0x61, 0x26, 0xbe, 0xf9, 0x42, 0x0e, 0xbe,
  0x6c, 0x65, 0x46, 0x3d, 0xe8, 0x41, 0x36, 0xbd, 0x34, 0xe5, 0x3d, 0xbe,
  0x93, 0x09, 0xe7, 0x3e, 0x36, 0x1a, 0xd5, 0x3c, 0xfb, 0x39, 0x22, 0x3e,
  0x0d, 0xc9, 0x96, 0xbd, 0x97, 0x34, 0x38, 0xbe, 0x6e, 0x0b, 0xf6, 0x3d,
  0xfd, 0xb7, 0xcd, 0xbd, 0x35, 0x5d, 0x52, 0xbd, 0x48, 0x40, 0x9d, 0x3e,
  0xd7, 0xb8, 0x2f, 0x3c, 0x49, 0x63, 0x60, 0xbd, 0xd0, 0x1f, 0xd2, 0xbe,
  0x82, 0xef, 0x92, 0xbe, 0x6f, 0xe4, 0x64, 0x3e, 0x8b, 0xc0, 0xfb, 0xbc,
  0xf9, 0xc3, 0x27, 0xbe, 0xce, 0xea, 0x1d, 0x3e, 0x6b, 0xdd, 0x8a, 0xbe,
  0xbf, 0x1f, 0xbd, 0x3e, 0x9d, 0xbb, 0x49, 0x3d, 0x72, 0x4f, 0x52, 0x3d,
  0x8b, 0x7b, 0x37, 0x3e, 0x79, 0x54, 0xde, 0xbc, 0x25, 0x82, 0x5a, 0x3c,
  0xfe, 0x16, 0x9c, 0x3e, 0x75, 0x15, 0x04, 0x3e, 0x57, 0xa1, 0x20, 0x3d,
  0xe5, 0x70, 0x2c, 0xbe, 0xc8, 0x04, 0x96, 0x3d, 0x89, 0xf1, 0xcf, 0x3d,
  0xc3, 0xed, 0x40, 0x3e, 0xb7, 0xf1, 0x9b, 0xbd, 0xe5, 0x6e, 0x99, 0xbd,
  0x00, 0x76, 0xd9, 0xbd, 0x78, 0x6f, 0x2a, 0xbe, 0x03, 0x04, 0xfc, 0x3c,
  0xd1, 0x8f, 0x04, 0x3e, 0x50, 0x48, 0x2e, 0xbe, 0x76, 0x84, 0x96, 0xbe,
  0xe2, 0x92, 0x07, 0xba, 0xbc, 0x2a, 0x75, 0x3d, 0xaf, 0x26, 0x2a, 0x3e,
  0x99, 0xfb, 0x86, 0xbe, 0x63, 0x2c, 0x6a, 0xbd, 0xb7, 0x6b, 0xa8, 0x3e,
  0xc0, 0x89, 0xe5, 0xbe, 0x95, 0x79, 0xaa, 0x3e, 0x34, 0x33, 0xe3, 0xbe,
  0x5b, 0x79, 0x6b, 0xbe, 0xeb, 0x1e, 0x9e, 0x3e, 0xe0, 0x93, 0x85, 0xbd,
  0xe3, 0x9e, 0x31, 0xbe, 0x23, 0xe8, 0xa8, 0xbd, 0x3c, 0xc3, 0x4d, 0xbe,
  0xa1, 0x67, 0x08, 0xbf, 0x1c, 0x6d, 0xb3, 0x3d, 0xbe, 0xc5, 0xf4, 0x3c,
  0xee, 0xed, 0x5c, 0x3e, 0x4b, 0xd6, 0xad, 0xbe, 0x26, 0x67, 0xfd, 0xbd,
  0xb0, 0x6c, 0x80, 0x3d, 0x19, 0xad, 0x1b, 0xbe, 0xfe, 0x34, 0x0a, 0x3d,
  0xfa, 0xe1, 0x00, 0xbf, 0x19, 0xca, 0xf2, 0x39, 0xf6, 0xf2, 0xab, 0x3e,
  0x68, 0xd8, 0x3b, 0x3e, 0x31, 0x10, 0xc7, 0x3e, 0x67, 0xc8, 0x5a, 0x3b,
  0x0c, 0x38, 0x1c, 0x3d, 0xbb, 0xce, 0xf3, 0xbe, 0xbd, 0xe1, 0x02, 0x3e,
  0xdc, 0x1e, 0x20, 0x3f, 0x6d, 0x4e, 0x08, 0x3e, 0x29, 0x4b, 0x57, 0xbe,
  0x05, 0x85, 0x31, 0xbe, 0x0b, 0x45, 0x62, 0x3e, 0x51, 0xd3, 0xa7, 0x3d,
  0xaa, 0xb1, 0x80, 0x3d, 0xbe, 0x99, 0x03, 0xbe, 0x17, 0x5f, 0xa6, 0x3c,
  0xaa, 0x6c, 0x86, 0x3e, 0x3e, 0xd4, 0x01, 0x3e, 0xe9, 0xcd, 0x32, 0x3e,
  0x1e, 0x1e, 0xbd, 0x3c, 0x72, 0xf2, 0xca, 0x3b, 0xbf, 0x63, 0x9d, 0xbe,
  0x9a, 0x68, 0xb0, 0x3d, 0xc1, 0x82, 0xe5, 0x3e, 0x01, 0x46, 0xdb, 0x3d,
  0x2e, 0x52, 0x1c, 0xbe, 0x3c, 0x19, 0xdc, 0xbc, 0xe1, 0xd0, 0x3f, 0x3c,
  0xb2, 0xbe, 0xb9, 0x3e, 0x6a, 0xb1, 0x2e, 0x3e, 0xcb, 0x28, 0x5a, 0xbe,
  0xa1, 0x28, 0xcf, 0xbd, 0x96, 0xe0, 0x3f, 0x3c, 0x43, 0xfd, 0xd2, 0x3e,
  0x33, 0x00, 0xe5, 0x3d, 0x59, 0xb4, 0xef, 0xbd, 0xef, 0x71, 0x40, 0xbe,
  0x04, 0x12, 0x9c, 0xbe, 0xca, 0x4b, 0x5c, 0x3d, 0x7d, 0xe3, 0x1d, 0x3e,
  0x0d, 0x63, 0x06, 0x3e, 0x7c, 0x21, 0x7d, 0xbe, 0x6b, 0xde, 0xde, 0xbd,
  0x80, 0x68, 0x8b, 0x3e, 0x75, 0xa0, 0x64, 0x3e, 0x3f, 0x74, 0x74, 0x3e,
  0xd0, 0xf2, 0x83, 0xbe, 0xb7, 0x87, 0x8a, 0x3d, 0x4e, 0x6b, 0x80, 0x3e,
  0x75, 0xda, 0x06, 0x3d, 0xf8, 0x8f, 0xa9, 0x3e, 0xc4, 0x24, 0x61, 0x3d,
  0x92, 0xba, 0xb6, 0xbe, 0x30, 0x2f, 0x8c, 0xbe, 0xba, 0x67, 0xcf, 0x3b,
  0x60, 0x06, 0xc3, 0x3e, 0x32, 0xf5, 0x87, 0x3c, 0x88, 0x5b, 0x6b, 0xbe,
  0x30, 0xea, 0x65, 0xbe, 0x8f, 0xe5, 0xd9, 0x3d, 0x36, 0x0c, 0x5e, 0x3d,
  0x02, 0x46, 0x3c, 0x3e, 0x42, 0x70, 0x59, 0xbe, 0xea, 0x64, 0x7a, 0xbd,
  0x2c, 0x38, 0x44, 0x3e, 0x59, 0xff, 0x05, 0x3c, 0x1f, 0x0a, 0xc0, 0x3d,
  0x29, 0xb7, 0xdb, 0xbc, 0x91, 0xaa, 0x84, 0xbd, 0x6e, 0x4c, 0x1c, 0xbe,
  0x91, 0x56, 0x12, 0xbc, 0x9f, 0x12, 0x90, 0x3c, 0x4d, 0xe2, 0x10, 0xbe,
  0x8d, 0x38, 0xa2, 0xbe, 0x63, 0x41, 0xd8, 0xbd, 0x11, 0x75, 0x94, 0x3e,
  0x4d, 0xa8, 0x99, 0x3c, 0x99, 0x5b, 0xaa, 0xbe, 0xfe, 0x06, 0xd3, 0xbd,
  0x48, 0xe9, 0x50, 0xbd, 0xef, 0x69, 0x3a, 0xbe, 0xf7, 0xc6, 0x22, 0x3d,
  0x0c, 0xc8, 0xd0, 0xbd, 0xf5, 0xcc, 0x0c, 0xbe, 0x4a, 0xfe, 0xff, 0xff,
  0x10, 0x00, 0x00, 0x00, 0x05, 0x00, 0x00, 0x00, 0x14, 0x00, 0x00, 0x00,
  0x2c, 0x00, 0x00, 0x00, 0x02, 0x00, 0x00, 0x00, 0x10, 0x00, 0x00, 0x00,
  0x70, 0x00, 0x00, 0x00, 0x17, 0x00, 0x00, 0x00, 0x73, 0x65, 0x71, 0x75,
  0x65, 0x6e, 0x74, 0x69, 0x61, 0x6c, 0x2f, 0x64, 0x65, 0x6e, 0x73, 0x65,
  0x2f, 0x4d, 0x61, 0x74, 0x4d, 0x75, 0x6c, 0x00, 0x38, 0xfe, 0xff, 0xff,
  0x2e, 0xff, 0xff, 0xff, 0x04, 0x00, 0x00, 0x00, 0x08, 0x00, 0x00, 0x00,
  0xff, 0xff, 0xff, 0xff, 0x70, 0x00, 0x00, 0x00, 0x00, 0x00, 0x0e, 0x00,
  0x18, 0x00, 0x08, 0x00, 0x07, 0x00, 0x0c, 0x00, 0x10, 0x00, 0x14, 0x00,
  0x0e, 0x00, 0x00, 0x00, 0x00, 0x00, 0x00, 0x02, 0x10, 0x00, 0x00, 0x00,
  0x04, 0x00, 0x00, 0x00, 0x10, 0x00, 0x00, 0x00, 0x2c, 0x00, 0x00, 0x00,
  0x01, 0x00, 0x00, 0x00, 0x02, 0x00, 0x00, 0x00, 0x18, 0x00, 0x00, 0x00,
  0x73, 0x65, 0x71, 0x75, 0x65, 0x6e, 0x74, 0x69, 0x61, 0x6c, 0x2f, 0x66,
  0x6c, 0x61, 0x74, 0x74, 0x65, 0x6e, 0x2f, 0x43, 0x6f, 0x6e, 0x73, 0x74,
  0x00, 0x00, 0x00, 0x00, 0xa0, 0xfe, 0xff, 0xff, 0x96, 0xff, 0xff, 0xff,
  0x04, 0x00, 0x00, 0x00, 0x0c, 0x00, 0x00, 0x00, 0x38, 0xc1, 0xc8, 0xbe,
  0x32, 0x62, 0x64, 0xc0, 0x75, 0x67, 0x0b, 0x40, 0x0a, 0xff, 0xff, 0xff,
  0x10, 0x00, 0x00, 0x00, 0x03, 0x00, 0x00, 0x00, 0x10, 0x00, 0x00, 0x00,
  0x3c, 0x00, 0x00, 0x00, 0x01, 0x00, 0x00, 0x00, 0x03, 0x00, 0x00, 0x00,
  0x29, 0x00, 0x00, 0x00, 0x73, 0x65, 0x71, 0x75, 0x65, 0x6e, 0x74, 0x69,
  0x61, 0x6c, 0x2f, 0x64, 0x65, 0x6e, 0x73, 0x65, 0x5f, 0x31, 0x2f, 0x42,
  0x69, 0x61, 0x73, 0x41, 0x64, 0x64, 0x2f, 0x52, 0x65, 0x61, 0x64, 0x56,
  0x61, 0x72, 0x69, 0x61, 0x62, 0x6c, 0x65, 0x4f, 0x70, 0x00, 0x00, 0x00,
  0x60, 0xff, 0xff, 0xff, 0x00, 0x00, 0x06, 0x00, 0x08, 0x00, 0x04, 0x00,
  0x06, 0x00, 0x00, 0x00, 0x04, 0x00, 0x00, 0x00, 0x40, 0x00, 0x00, 0x00,
  0x97, 0x61, 0xb2, 0xbf, 0x87, 0x71, 0x02, 0x3e, 0x08, 0xe2, 0x9b, 0x3f,
  0xfc, 0x13, 0x12, 0xbd, 0x09, 0x83, 0xe6, 0xbe, 0xbf, 0x44, 0x23, 0xbe,
  0xcc, 0x13, 0x87, 0x3f, 0x9d, 0x81, 0xf8, 0xbd, 0xf2, 0xa9, 0x1e, 0x3f,
  0x15, 0x46, 0x7c, 0xbf, 0xd1, 0xa3, 0xf9, 0x3d, 0xe6, 0x4a, 0x84, 0x40,
  0x3f, 0xd1, 0xcc, 0x3f, 0xa0, 0xd7, 0x53, 0xbe, 0x29, 0x65, 0xeb, 0xbe,
  0x92, 0x0e, 0x80, 0x40, 0xae, 0xff, 0xff, 0xff, 0x10, 0x00, 0x00, 0x00,
  0x02, 0x00, 0x00, 0x00, 0x10, 0x00, 0x00, 0x00, 0x3c, 0x00, 0x00, 0x00,
  0x01, 0x00, 0x00, 0x00, 0x10, 0x00, 0x00, 0x00, 0x27, 0x00, 0x00, 0x00,
  0x73, 0x65, 0x71, 0x75, 0x65, 0x6e, 0x74, 0x69, 0x61, 0x6c, 0x2f, 0x64,
  0x65, 0x6e, 0x73, 0x65, 0x2f, 0x42, 0x69, 0x61, 0x73, 0x41, 0x64, 0x64,
  0x2f, 0x52, 0x65, 0x61, 0x64, 0x56, 0x61, 0x72, 0x69, 0x61, 0x62, 0x6c,
  0x65, 0x4f, 0x70, 0x00, 0x04, 0x00, 0x06, 0x00, 0x04, 0x00, 0x00, 0x00,
  0x00, 0x00, 0x0e, 0x00, 0x14, 0x00, 0x04, 0x00, 0x00, 0x00, 0x08, 0x00,
  0x0c, 0x00, 0x10, 0x00, 0x0e, 0x00, 0x00, 0x00, 0x10, 0x00, 0x00, 0x00,
  0x01, 0x00, 0x00, 0x00, 0x1c, 0x00, 0x00, 0x00, 0x2c, 0x00, 0x00, 0x00,
  0x04, 0x00, 0x00, 0x00, 0x01, 0x00, 0x00, 0x00, 0x40, 0x00, 0x00, 0x00,
  0x03, 0x00, 0x00, 0x00, 0x01, 0x00, 0x00, 0x00, 0x0c, 0x00, 0x00, 0x00,
  0x63, 0x6f, 0x6e, 0x76, 0x32, 0x64, 0x5f, 0x69, 0x6e, 0x70, 0x75, 0x74,
  0x00, 0x00, 0x00, 0x00, 0xfc, 0xff, 0xff, 0xff, 0x04, 0x00, 0x04, 0x00,
  0x04, 0x00, 0x00, 0x00

};


unsigned int model_tflite_len = 12316;// Fill the int in `src/model.cc` here